<pad>	0
<s>	0
</s>	0
<unk>	0
s	-3.18364
▁the	-3.33881
,	-3.37459
.	-3.48189
▁to	-3.97508
▁of	-4.01168
▁a	-4.07938
▁and	-4.09392
▁in	-4.34692
▁	-4.67072
▁that	-4.77668
’	-4.93468
▁is	-4.95194
-	-4.95732
t	-5.05234
▁for	-5.07946
ing	-5.0994
ed	-5.12424
▁it	-5.29264
▁on	-5.31162
d	-5.36355
▁with	-5.3814
'	-5.38228
▁I	-5.42643
▁was	-5.45769
▁The	-5.52783
▁be	-5.54123
▁as	-5.63514
▁are	-5.7369
▁have	-5.80892
▁by	-5.8306
▁“	-5.83543
▁from	-5.86271
▁you	-5.87966
▁(	-5.88996
▁at	-5.89353
ly	-5.90965
er	-5.91855
▁not	-5.93617
▁he	-5.9385
▁this	-5.94539
▁an	-5.96631
y	-5.98522
▁or	-6.07565
▁his	-6.09389
▁has	-6.09393
re	-6.14566
▁"	-6.15799
e	-6.16968
▁they	-6.19186
▁but	-6.19465
:	-6.20048
▁we	-6.21001
▁will	-6.28713
▁their	-6.2909
)	-6.31234
▁can	-6.3317
m	-6.35673
a	-6.35846
▁A	-6.36413
▁who	-6.37381
▁more	-6.38706
al	-6.40713
▁one	-6.41847
▁all	-6.44708
▁which	-6.45594
▁about	-6.47075
▁had	-6.47326
▁said	-6.47984
n	-6.48053
▁were	-6.48202
▁out	-6.48465
▁would	-6.53378
in	-6.57553
▁up	-6.57987
▁been	-6.59186
▁In	-6.59479
▁so	-6.64834
S	-6.67259
r	-6.68306
es	-6.70116
▁It	-6.7019
i	-6.73751
▁like	-6.74255
▁also	-6.77927
or	-6.78478
▁time	-6.78563
▁than	-6.79103
▁people	-6.79184
▁when	-6.79405
▁other	-6.81457
▁what	-6.81691
▁re	-6.82307
”	-6.82782
▁there	-6.82849
▁S	-6.83428
▁do	-6.84536
▁into	-6.87536
▁if	-6.87925
▁over	-6.88857
▁He	-6.90171
▁just	-6.90409
o	-6.91068
▁no	-6.91331
▁some	-6.922
ve	-6.9382
th	-6.94767
▁your	-6.97008
▁her	-6.97162
▁them	-6.97172
▁new	-6.98248
I	-6.98573
.”	-6.98576
▁our	-7.00714
?	-7.01085
▁its	-7.01926
▁my	-7.02877
▁first	-7.05077
le	-7.05319
▁only	-7.06491
"	-7.08126
ll	-7.08302
▁me	-7.08366
;	-7.0992
g	-7.1096
ers	-7.11215
▁But	-7.11908
▁two	-7.12674
▁could	-7.13583
▁after	-7.14025
p	-7.16174
c	-7.17313
▁get	-7.17796
▁This	-7.18116
▁C	-7.18315
▁she	-7.19133
/	-7.20086
▁most	-7.20625
▁even	-7.21169
,”	-7.21263
▁because	-7.22335
l	-7.23346
b	-7.23372
u	-7.23503
▁how	-7.24759
ation	-7.24938
on	-7.24947
▁him	-7.25003
▁back	-7.25465
an	-7.26109
▁any	-7.26972
▁make	-7.27408
D	-7.27884
▁years	-7.28913
▁We	-7.30468
▁year	-7.31495
▁un	-7.32076
k	-7.32507
il	-7.32646
▁way	-7.33057
▁these	-7.33068
en	-7.33542
]	-7.34038
▁F	-7.34371
▁—	-7.34435
▁–	-7.34886
▁now	-7.35359
▁where	-7.36568
▁many	-7.36789
C	-7.37158
▁And	-7.37512
▁T	-7.37784
."	-7.37894
▁U	-7.38208
ic	-7.39812
▁being	-7.40228
▁B	-7.40591
ion	-7.40786
▁those	-7.41213
▁know	-7.41573
ive	-7.42244
▁work	-7.42246
▁de	-7.42863
A	-7.43173
▁much	-7.43189
▁very	-7.4469
▁E	-7.45236
able	-7.45401
it	-7.45942
el	-7.46557
▁well	-7.46564
w	-7.47134
▁use	-7.47552
▁then	-7.48102
f	-7.49828
▁see	-7.50424
▁don	-7.5078
B	-7.50903
▁such	-7.50916
▁19	-7.5104
ar	-7.51366
▁last	-7.51797
P	-7.5232
▁1	-7.54171
T	-7.54396
▁before	-7.5563
▁think	-7.55861
▁may	-7.56433
▁through	-7.56498
▁P	-7.57087
to	-7.5773
).	-7.58323
▁made	-7.58345
—	-7.58941
▁should	-7.59116
,"	-7.59746
▁G	-7.59751
▁D	-7.60003
▁game	-7.60915
▁government	-7.61429
▁down	-7.62415
▁going	-7.62769
▁2	-7.63032
▁M	-7.63231
▁world	-7.63297
ity	-7.63508
at	-7.63906
▁while	-7.63909
▁against	-7.63966
▁us	-7.64317
man	-7.64323
▁So	-7.64364
▁good	-7.64652
▁right	-7.64956
▁off	-7.65257
▁want	-7.66372
▁take	-7.66821
M	-7.6684
▁go	-7.66965
h	-7.67753
▁still	-7.67825
▁If	-7.68692
▁under	-7.69068
▁between	-7.6914
▁same	-7.69146
▁part	-7.69257
▁own	-7.69822
ra	-7.70048
),	-7.70285
▁did	-7.71215
li	-7.71368
us	-7.71714
R	-7.71919
id	-7.73165
F	-7.73334
▁For	-7.7367
▁need	-7.73771
ul	-7.74319
▁O	-7.74361
ment	-7.74609
ist	-7.7472
est	-7.7481
▁They	-7.74846
▁around	-7.75503
ro	-7.7575
▁state	-7.75763
ch	-7.75867
L	-7.75905
▁As	-7.76444
▁long	-7.76462
ate	-7.77262
▁end	-7.773
x	-7.77888
▁both	-7.78298
▁team	-7.78398
▁used	-7.78607
▁W	-7.78694
▁three	-7.78829
lo	-7.79152
▁3	-7.79415
N	-7.798
ge	-7.80326
▁say	-7.80417
G	-7.80436
▁really	-7.80582
▁New	-7.80656
ma	-7.81009
de	-7.81105
ent	-7.81237
!	-7.82033
▁That	-7.82947
▁Re	-7.83116
ri	-7.83193
ur	-7.83523
▁R	-7.84066
E	-7.84442
is	-7.84736
te	-7.8477
▁says	-7.84863
the	-7.85356
2	-7.85716
▁p	-7.86425
▁You	-7.86503
▁day	-7.86865
ne	-7.87886
▁There	-7.8796
z	-7.89482
▁since	-7.89807
and	-7.90068
▁during	-7.90379
▁-	-7.9065
▁K	-7.90682
▁home	-7.90946
O	-7.92215
The	-7.92224
ry	-7.92856
▁lot	-7.93415
un	-7.93506
▁public	-7.93854
▁found	-7.94386
▁4	-7.94937
ia	-7.95205
as	-7.95425
▁different	-7.96207
▁high	-7.96279
▁come	-7.96357
ta	-7.96882
▁Trump	-7.97013
ter	-7.97169
▁co	-7.97248
▁N	-7.97254
1	-7.97424
et	-7.97481
▁system	-7.97715
▁something	-7.97867
▁life	-7.98199
▁10	-7.9836
▁few	-7.98573
age	-7.98885
▁another	-7.99097
▁here	-7.99288
▁might	-7.99662
ated	-7.99832
na	-7.9994
▁con	-8.00275
▁every	-8.00529
▁power	-8.00647
▁play	-8.00682
▁help	-8.00918
W	-8.01342
▁too	-8.01495
▁each	-8.01744
ty	-8.01827
H	-8.02202
▁never	-8.02273
▁told	-8.02667
ke	-8.02836
up	-8.02857
ir	-8.02904
▁support	-8.0291
▁things	-8.02924
▁point	-8.03294
co	-8.03361
▁L	-8.03647
U	-8.03728
um	-8.04094
▁number	-8.04816
ce	-8.0491
▁set	-8.05054
ine	-8.05071
▁best	-8.0545
▁[	-8.05582
ha	-8.05635
▁‘	-8.05698
am	-8.06035
▁dis	-8.06066
▁show	-8.06429
▁per	-8.06878
▁including	-8.07044
me	-8.07205
▁5	-8.07369
▁H	-8.07411
ton	-8.07518
▁place	-8.07575
▁fact	-8.07912
▁man	-8.08285
se	-8.08359
ies	-8.08442
▁without	-8.09129
▁season	-8.09145
com	-8.09712
▁great	-8.09859
im	-8.10036
▁million	-8.10191
3	-8.10199
▁case	-8.10322
la	-8.10468
ism	-8.10767
▁does	-8.10794
▁find	-8.11061
▁country	-8.11496
ian	-8.11714
▁next	-8.11876
▁second	-8.12304
▁When	-8.13463
▁put	-8.13681
▁American	-8.14104
mo	-8.14105
▁group	-8.14129
▁To	-8.14403
▁c	-8.14404
▁percent	-8.14615
ance	-8.15212
▁De	-8.15322
tic	-8.15357
▁called	-8.15545
ci	-8.15865
▁Ma	-8.16027
▁far	-8.16233
▁look	-8.16298
ness	-8.16417
▁little	-8.16586
ad	-8.16696
be	-8.1691
▁week	-8.16993
▁better	-8.17288
▁Co	-8.17698
▁She	-8.18188
▁law	-8.18266
ol	-8.18482
K	-8.19039
son	-8.19196
▁head	-8.19343
no	-8.19409
▁pro	-8.20007
▁got	-8.20378
4	-8.20537
▁real	-8.20538
▁pre	-8.20709
_	-8.21509
▁data	-8.21511
ling	-8.21526
▁less	-8.21709
rs	-8.21775
ary	-8.21939
▁didn	-8.22082
ver	-8.24206
ating	-8.24475
▁left	-8.24532
▁e	-8.2499
▁company	-8.25094
▁using	-8.25232
▁change	-8.25235
▁US	-8.25686
▁start	-8.2588
▁women	-8.2631
0	-8.2658
5	-8.2741
▁already	-8.27442
▁United	-8.27622
▁side	-8.27671
▁political	-8.2772
▁thing	-8.27767
▁No	-8.27861
▁g	-8.27984
ting	-8.28259
v	-8.28281
▁money	-8.28618
▁order	-8.29363
▁On	-8.3031
ni	-8.31127
▁always	-8.31132
▁important	-8.31211
▁later	-8.31285
▁process	-8.31341
▁At	-8.31588
▁hard	-8.3176
ish	-8.31971
▁top	-8.32022
▁big	-8.32734
▁free	-8.32815
he	-8.32915
▁6	-8.33249
▁past	-8.33294
▁though	-8.33383
...	-8.33621
We	-8.33627
▁why	-8.3366
▁Le	-8.33835
sh	-8.33878
▁en	-8.34057
▁four	-8.3407
▁20	-8.34399
▁able	-8.34565
▁least	-8.34605
ence	-8.35044
▁war	-8.35169
▁become	-8.35268
▁human	-8.35383
▁must	-8.35415
▁feel	-8.35546
V	-8.35711
▁police	-8.35895
ted	-8.36102
ie	-8.36533
ous	-8.36582
▁came	-8.3672
▁car	-8.3674
▁open	-8.36954
▁actually	-8.37113
▁making	-8.37168
▁example	-8.37214
▁doesn	-8.37438
▁One	-8.37448
▁enough	-8.37551
▁--	-8.37551
▁run	-8.37596
pe	-8.3769
ck	-8.37698
▁believe	-8.37859
go	-8.3788
▁kind	-8.37896
ant	-8.37904
▁information	-8.37978
▁$	-8.37988
▁away	-8.38009
▁again	-8.38155
▁until	-8.38332
less	-8.38604
vi	-8.38655
min	-8.38784
▁keep	-8.38849
▁campaign	-8.38957
em	-8.39165
▁often	-8.39335
der	-8.39585
▁market	-8.39586
ut	-8.39675
ex	-8.40275
▁working	-8.40593
▁post	-8.40778
▁'	-8.40893
▁story	-8.41004
do	-8.41026
ized	-8.41416
▁men	-8.41792
▁water	-8.41812
▁line	-8.42032
▁city	-8.42094
▁Ha	-8.42527
▁18	-8.4269
▁di	-8.42829
▁small	-8.42962
6	-8.43352
ga	-8.43433
▁control	-8.43821
▁hand	-8.44128
ally	-8.44389
▁An	-8.44417
▁days	-8.44543
▁give	-8.4456
▁social	-8.44765
out	-8.44938
▁name	-8.4504
▁thought	-8.45067
.[	-8.45129
▁family	-8.45166
▁Do	-8.45465
▁St	-8.45692
▁took	-8.45859
▁media	-8.45875
▁course	-8.46043
▁ever	-8.46062
▁experience	-8.46175
one	-8.4619
▁film	-8.46389
▁What	-8.46646
▁Ro	-8.46879
▁person	-8.47159
▁Obama	-8.47344
▁result	-8.47349
▁school	-8.4744
▁full	-8.47633
▁report	-8.47684
▁likely	-8.47731
▁deal	-8.48168
▁7	-8.48188
(	-8.48328
▁won	-8.48439
ru	-8.48574
▁having	-8.48804
▁several	-8.48877
▁former	-8.48944
▁Ra	-8.49215
▁ex	-8.49553
way	-8.49975
▁ma	-8.50077
▁local	-8.50137
▁early	-8.5047
▁business	-8.50563
▁La	-8.50744
8	-8.50745
▁according	-8.51035
▁whether	-8.51128
▁Al	-8.51447
con	-8.51556
▁After	-8.51598
per	-8.51642
gu	-8.51718
9	-8.51789
▁among	-8.51995
▁large	-8.52014
▁However	-8.5223
▁went	-8.52303
▁question	-8.52387
▁known	-8.52521
▁seen	-8.52656
▁8	-8.52729
▁form	-8.53114
7	-8.53161
di	-8.5334
▁once	-8.53492
old	-8.5388
▁doing	-8.53958
▁Be	-8.54008
▁possible	-8.54185
▁York	-8.54241
▁video	-8.54467
op	-8.54505
▁players	-8.54786
▁President	-8.5492
▁b	-8.55004
▁Mo	-8.55109
▁f	-8.55326
▁children	-8.5539
▁clear	-8.55445
▁level	-8.55838
om	-8.56054
▁sp	-8.56092
▁within	-8.56106
ster	-8.56131
▁given	-8.56298
▁States	-8.56381
▁Mr	-8.56434
▁J	-8.56548
▁five	-8.5661
ial	-8.56844
▁sure	-8.56904
▁While	-8.56915
▁today	-8.5697
▁non	-8.57072
▁turn	-8.57104
ig	-8.57129
▁V	-8.57193
▁president	-8.57223
▁court	-8.57466
▁Pa	-8.57633
▁project	-8.57735
%	-8.57893
ac	-8.5792
▁problem	-8.58027
▁short	-8.58056
▁Sa	-8.58141
▁let	-8.58349
▁means	-8.58389
line	-8.58405
▁games	-8.58755
year	-8.58816
▁light	-8.58921
▁future	-8.59306
ner	-8.59367
▁old	-8.594
▁pay	-8.59433
▁national	-8.59856
It	-8.60009
Y	-8.60037
▁University	-8.60049
▁health	-8.60118
▁love	-8.60129
▁done	-8.60275
▁Mar	-8.60423
▁move	-8.60555
▁call	-8.6067
ure	-8.60704
▁win	-8.60759
▁book	-8.60977
▁community	-8.61148
▁month	-8.61191
j	-8.61259
▁12	-8.61401
▁across	-8.61411
▁la	-8.61431
tion	-8.61851
ti	-8.62262
J	-8.62287
ful	-8.6242
▁With	-8.62498
va	-8.62534
▁9	-8.62566
lu	-8.62697
▁House	-8.6305
▁Pro	-8.63158
▁am	-8.6318
▁face	-8.63202
▁months	-8.6329
▁bit	-8.63457
▁Con	-8.63467
▁position	-8.63622
▁yet	-8.63909
▁members	-8.6396
▁almost	-8.63967
ite	-8.63984
▁State	-8.64158
▁All	-8.64185
▁based	-8.64357
▁idea	-8.64682
▁matter	-8.64699
▁Ka	-8.64773
▁night	-8.64878
▁live	-8.64914
▁issue	-8.64916
▁reason	-8.64959
end	-8.65284
tro	-8.65627
wa	-8.65678
▁space	-8.66529
ot	-8.6654
▁major	-8.66628
time	-8.66858
▁getting	-8.66902
▁study	-8.67046
▁started	-8.67199
▁Me	-8.67533
▁Bo	-8.67546
▁America	-8.67603
bo	-8.67609
▁lead	-8.67614
mi	-8.6762
▁half	-8.67949
▁single	-8.68274
▁recent	-8.68285
▁young	-8.68301
▁together	-8.6832
land	-8.68588
ca	-8.68604
▁along	-8.68614
▁death	-8.68633
▁Z	-8.687
▁times	-8.68709
▁series	-8.68849
▁list	-8.69122
▁15	-8.69381
▁anti	-8.69581
▁John	-8.69769
▁rather	-8.69853
▁land	-8.69955
▁ago	-8.69974
▁create	-8.70035
▁Na	-8.70067
ning	-8.70217
▁trying	-8.70525
io	-8.70756
ak	-8.70805
▁research	-8.70884
ard	-8.70899
▁party	-8.71597
▁hope	-8.71617
▁history	-8.71817
ize	-8.72014
▁design	-8.72057
▁app	-8.72205
▁attack	-8.72225
▁job	-8.72372
▁asked	-8.72379
▁read	-8.72908
led	-8.72935
ical	-8.73031
▁fight	-8.73055
▁close	-8.73409
▁care	-8.73584
▁War	-8.7362
▁available	-8.73776
▁role	-8.73801
▁His	-8.73969
▁mind	-8.74016
hi	-8.74282
▁tax	-8.74502
side	-8.74519
▁anything	-8.74673
▁Ho	-8.74749
▁current	-8.74972
▁ca	-8.75089
▁building	-8.75172
▁North	-8.75186
▁plan	-8.75236
our	-8.75334
▁six	-8.75394
we	-8.75453
▁military	-8.75619
▁election	-8.75621
▁view	-8.75622
red	-8.7598
▁sta	-8.75993
ley	-8.76236
ey	-8.76245
bi	-8.76285
▁area	-8.76349
▁black	-8.76552
▁statement	-8.76705
▁cost	-8.76853
nd	-8.7688
▁makes	-8.76939
▁These	-8.76941
ud	-8.7708
▁policy	-8.77181
lin	-8.77328
▁talk	-8.77451
▁class	-8.77508
▁similar	-8.7754
▁taken	-8.77861
▁program	-8.77921
ide	-8.78063
ap	-8.78079
▁behind	-8.78159
da	-8.78204
▁food	-8.78461
▁d	-8.78576
▁isn	-8.78753
X	-8.78754
ho	-8.78803
ach	-8.78804
▁bad	-8.78863
▁development	-8.79114
les	-8.79199
▁special	-8.79205
▁white	-8.79215
–	-8.79245
▁low	-8.79272
▁comes	-8.79279
▁hit	-8.79287
os	-8.79288
ative	-8.79542
▁economic	-8.79749
▁Ta	-8.79781
▁office	-8.7984
dy	-8.8
▁=	-8.80071
ities	-8.80133
king	-8.80359
▁Ca	-8.8045
▁became	-8.80619
▁version	-8.80645
▁wanted	-8.80647
ped	-8.80651
ph	-8.80654
▁looking	-8.80691
ile	-8.81091
▁11	-8.81122
▁federal	-8.8115
▁air	-8.81262
▁increase	-8.81329
▁30	-8.81439
▁return	-8.81627
▁whole	-8.81703
▁Clinton	-8.81738
▁someone	-8.82039
▁probably	-8.82168
▁legal	-8.82224
pro	-8.82235
▁taking	-8.82383
▁either	-8.82419
▁evidence	-8.82455
▁try	-8.82514
▁companies	-8.82779
▁however	-8.82874
▁due	-8.82881
▁decision	-8.83019
▁access	-8.83024
od	-8.83229
▁Vi	-8.83339
▁saying	-8.83341
▁provide	-8.83343
▁character	-8.83611
▁security	-8.8373
▁nothing	-8.83823
▁Some	-8.83908
nt	-8.8392
▁service	-8.83941
▁bring	-8.83969
▁player	-8.84025
▁general	-8.84443
▁stop	-8.84572
▁energy	-8.84638
▁mean	-8.8467
ag	-8.84774
▁itself	-8.84794
▁front	-8.84906
ny	-8.84968
▁National	-8.85168
▁share	-8.85206
▁moment	-8.85336
ten	-8.8539
▁Po	-8.85466
ron	-8.8583
▁following	-8.85972
▁risk	-8.85973
▁0	-8.86135
▁v	-8.86236
▁fl	-8.86505
▁self	-8.86528
▁amount	-8.86534
▁final	-8.8664
bu	-8.86734
by	-8.86822
qui	-8.86862
▁test	-8.8688
▁seems	-8.87019
▁body	-8.87124
▁house	-8.87228
ring	-8.87236
ization	-8.87253
▁further	-8.87323
▁ba	-8.87388
▁act	-8.87503
ub	-8.87575
ba	-8.87581
▁China	-8.87582
▁Now	-8.87773
▁age	-8.87865
▁release	-8.87916
▁everything	-8.87929
▁field	-8.8793
▁key	-8.87975
▁...	-8.88054
▁World	-8.88127
▁themselves	-8.8827
▁coming	-8.8827
ions	-8.88349
▁simply	-8.88403
▁South	-8.88455
▁began	-8.88478
ow	-8.88863
▁ground	-8.89153
▁others	-8.89338
▁continue	-8.89381
▁late	-8.89396
▁tell	-8.89488
▁bill	-8.89555
▁third	-8.89627
▁sub	-8.89645
▁countries	-8.89851
▁outside	-8.90153
mb	-8.90164
▁common	-8.90245
tra	-8.90416
ah	-8.90454
ft	-8.90508
▁2014	-8.90578
▁Ba	-8.90734
▁sense	-8.90831
av	-8.90835
▁shot	-8.91002
▁reported	-8.91005
che	-8.91009
ice	-8.91018
▁se	-8.91032
▁himself	-8.91103
▁action	-8.91354
▁Or	-8.91529
▁issues	-8.91566
fa	-8.91668
▁Li	-8.91727
▁2015	-8.91916
▁true	-8.91924
▁understand	-8.91996
▁especially	-8.92084
▁added	-8.92235
▁wrote	-8.92555
10	-8.9262
▁difficult	-8.92655
▁approach	-8.92695
▁gun	-8.927
▁strong	-8.92822
iv	-8.92876
▁record	-8.9291
mon	-8.92941
▁16	-8.92947
ick	-8.92991
▁My	-8.92999
▁2016	-8.93007
tor	-8.93052
▁account	-8.93087
act	-8.93193
▁students	-8.93294
▁Washington	-8.93455
▁trade	-8.9357
▁needed	-8.93721
ran	-8.93881
▁released	-8.93885
▁build	-8.93896
▁include	-8.94084
▁industry	-8.9418
▁$1	-8.94254
▁leave	-8.94647
▁states	-8.9478
▁value	-8.94781
▁rest	-8.94887
▁room	-8.94956
▁Se	-8.95081
▁X	-8.95185
▁k	-8.95269
har	-8.9534
▁instead	-8.95371
▁City	-8.95449
mp	-8.95483
­	-8.95627
gg	-8.95642
▁break	-8.95651
ther	-8.95698
▁stand	-8.95826
▁Lo	-8.95837
▁situation	-8.96018
ious	-8.96062
▁Dr	-8.96111
▁wasn	-8.96201
ven	-8.96303
ger	-8.96479
▁Wa	-8.96594
ect	-8.96701
▁May	-8.96745
▁hold	-8.96771
▁near	-8.96976
▁mo	-8.96987
▁m	-8.97059
▁&	-8.97136
ka	-8.97141
den	-8.97192
▁above	-8.97201
▁officials	-8.97203
20	-8.97389
tter	-8.97414
port	-8.97587
▁po	-8.97589
▁billion	-8.97645
▁quite	-8.97659
▁hours	-8.97705
▁higher	-8.97804
▁network	-8.98229
ler	-8.9824
▁event	-8.9825
po	-8.98401
▁groups	-8.98404
ding	-8.98451
▁By	-8.98502
▁period	-8.98522
▁saw	-8.98559
▁main	-8.98661
▁mis	-8.98683
▁imp	-8.98702
ier	-8.98803
▁news	-8.98823
▁average	-8.98967
▁chance	-8.99039
▁certain	-8.99099
▁running	-8.99105
▁practice	-8.99115
▁race	-8.99194
istic	-8.99255
▁cause	-8.9969
ber	-8.99806
ee	-8.99825
▁phone	-8.99932
val	-8.99936
▁total	-8.99942
▁2012	-9.002
▁ten	-9.00285
▁everyone	-9.00304
▁address	-9.00441
▁price	-9.00574
▁2013	-9.00585
▁Go	-9.00677
▁points	-9.00711
▁rate	-9.0074
▁13	-9.00891
▁demand	-9.0107
ever	-9.0109
▁17	-9.012
▁played	-9.01226
▁Ne	-9.01457
▁interview	-9.01505
▁allow	-9.01576
▁Republican	-9.01591
▁director	-9.01611
ving	-9.0162
▁site	-9.01655
▁private	-9.01746
▁bo	-9.01773
▁block	-9.01948
ified	-9.01978
é	-9.02004
fi	-9.02017
▁recently	-9.02055
▁White	-9.022
▁pretty	-9.02421
▁attempt	-9.02431
▁Even	-9.02523
▁add	-9.02585
▁track	-9.02601
▁cr	-9.0267
sion	-9.02726
▁code	-9.02841
▁rights	-9.02975
▁nation	-9.03173
▁music	-9.0348
ship	-9.03514
▁cover	-9.03543
▁playing	-9.03569
▁West	-9.0359
▁follow	-9.03624
▁article	-9.03645
ists	-9.0372
men	-9.03778
▁technology	-9.03947
▁present	-9.04023
▁international	-9.0406
ze	-9.04199
▁couple	-9.04311
▁San	-9.04326
▁potential	-9.0435
▁comp	-9.04388
▁else	-9.04455
mer	-9.04505
▁goal	-9.04709
▁pick	-9.04735
▁led	-9.04748
▁According	-9.04776
[	-9.04806
▁lost	-9.04911
▁response	-9.04912
▁14	-9.05078
▁answer	-9.0521
▁Car	-9.05235
▁content	-9.05252
▁Ja	-9.05375
ell	-9.05592
▁movie	-9.05612
▁focus	-9.05616
▁fire	-9.05684
pi	-9.05726
ise	-9.05799
gen	-9.05934
▁forward	-9.06142
▁stay	-9.06147
au	-9.06181
▁author	-9.06298
bb	-9.06383
▁Ri	-9.06395
▁personal	-9.06683
▁sign	-9.06772
▁gra	-9.06782
▁vote	-9.07038
ple	-9.07076
for	-9.07217
▁sa	-9.07361
▁meeting	-9.07401
▁woman	-9.07467
▁press	-9.07541
▁official	-9.07564
▁global	-9.07581
tu	-9.07594
▁super	-9.07601
▁Department	-9.07604
▁original	-9.07642
▁model	-9.07695
▁population	-9.07699
▁held	-9.07725
▁o	-9.07855
cur	-9.08068
of	-9.0809
▁movement	-9.081
▁entire	-9.081
▁check	-9.08166
▁challenge	-9.08208
▁ho	-9.08213
▁expect	-9.08261
ip	-9.08317
vo	-9.08352
▁store	-9.08523
▁interest	-9.08537
▁words	-9.08629
▁ch	-9.0869
▁li	-9.08805
▁contract	-9.08944
ill	-9.09005
50	-9.09142
▁subject	-9.09425
ability	-9.09473
▁function	-9.09482
▁title	-9.09548
▁financial	-9.09614
▁created	-9.09641
ward	-9.0965
▁page	-9.09683
▁Man	-9.09718
▁bar	-9.09725
ble	-9.09796
▁Not	-9.09887
▁effect	-9.10042
In	-9.10097
▁host	-9.10202
▁ti	-9.10213
fe	-9.1035
ator	-9.1037
ang	-9.10378
▁base	-9.10391
▁performance	-9.10485
▁longer	-9.10534
▁success	-9.1054
spect	-9.10676
▁wrong	-9.10921
▁shows	-9.11028
▁na	-9.1104
ably	-9.11129
▁online	-9.11185
qu	-9.11206
▁email	-9.11249
▁travel	-9.11258
ff	-9.11428
▁anyone	-9.11439
▁Sha	-9.11447
▁target	-9.11804
pa	-9.11831
ep	-9.1184
▁Y	-9.11844
▁individual	-9.11926
nch	-9.11933
dic	-9.11986
▁changes	-9.12129
▁needs	-9.12288
▁force	-9.1232
▁cut	-9.12495
▁Ga	-9.12595
ay	-9.12622
▁problems	-9.12755
▁easy	-9.12975
if	-9.13055
▁sh	-9.13107
▁sc	-9.13112
▁nearly	-9.13121
▁sort	-9.13149
▁buy	-9.13377
▁soon	-9.13419
▁received	-9.1348
pp	-9.13611
ual	-9.13622
▁announced	-9.1364
ctor	-9.13685
rk	-9.13703
▁administration	-9.13808
▁European	-9.1386
▁staff	-9.1388
▁25	-9.1391
▁involved	-9.14038
▁earlier	-9.14054
▁God	-9.14118
▁fall	-9.1415
▁cannot	-9.14237
▁message	-9.1429
▁material	-9.1445
off	-9.14485
▁review	-9.14547
▁ability	-9.14579
▁Pe	-9.14645
▁inside	-9.14719
▁com	-9.14731
▁lack	-9.14889
▁simple	-9.14972
▁type	-9.14983
ture	-9.14997
▁write	-9.1506
▁impact	-9.15066
▁language	-9.15077
▁art	-9.15119
▁star	-9.15128
▁whose	-9.15323
▁living	-9.15361
▁services	-9.15601
▁Per	-9.15685
▁foreign	-9.15773
▁ask	-9.15779
▁paper	-9.15987
▁El	-9.16056
▁al	-9.16115
▁region	-9.16122
▁decided	-9.1615
▁size	-9.16166
▁seem	-9.16306
▁weeks	-9.16335
▁Star	-9.1647
▁protect	-9.16512
▁worth	-9.1673
▁pass	-9.16788
▁heart	-9.16867
ct	-9.16978
▁lower	-9.1715
▁minutes	-9.17333
▁Americans	-9.1738
▁gave	-9.17471
▁results	-9.17489
▁users	-9.17623
▁website	-9.17852
ral	-9.17918
▁2011	-9.18051
▁child	-9.18179
▁relationship	-9.18239
▁du	-9.18312
▁friends	-9.18455
lan	-9.18486
▁board	-9.18529
▁step	-9.18703
▁terms	-9.18732
▁Mu	-9.18733
▁worked	-9.18802
▁natural	-9.18945
▁workers	-9.19066
▁match	-9.19067
▁Fa	-9.19148
za	-9.19221
cl	-9.19289
▁mid	-9.19327
▁Congress	-9.19332
▁choice	-9.19428
▁i	-9.19453
00	-9.19583
lic	-9.19639
▁reach	-9.19677
back	-9.19719
▁popular	-9.19853
tal	-9.19966
▁expected	-9.19987
based	-9.20015
▁member	-9.20203
▁cases	-9.20383
▁range	-9.2044
ging	-9.20508
▁Google	-9.20527
que	-9.20552
▁crime	-9.20663
light	-9.2068
so	-9.20705
▁Gu	-9.20743
▁production	-9.20793
kin	-9.20886
▁fear	-9.20893
▁source	-9.21022
▁fe	-9.21052
▁published	-9.21295
▁sent	-9.21399
▁computer	-9.21427
▁product	-9.21445
▁ro	-9.21672
▁felt	-9.21675
▁vi	-9.21719
ab	-9.21765
▁British	-9.21772
▁search	-9.21779
ev	-9.21809
▁career	-9.21852
▁fun	-9.21973
und	-9.21995
row	-9.22178
▁particular	-9.22224
▁explain	-9.22311
▁Bar	-9.22434
▁oil	-9.22563
▁screen	-9.22729
▁road	-9.2276
▁built	-9.22876
▁begin	-9.23041
▁currently	-9.23066
▁prevent	-9.23081
▁Of	-9.23135
▁center	-9.23179
mm	-9.23328
▁lo	-9.23335
ory	-9.23477
▁quickly	-9.23503
set	-9.23581
▁specific	-9.23709
ham	-9.23768
▁huge	-9.23819
▁March	-9.23849
▁spent	-9.24252
▁turned	-9.24263
▁Qu	-9.24299
▁Act	-9.24446
▁r	-9.24481
▁significant	-9.24505
▁request	-9.24547
▁investigation	-9.24611
▁threat	-9.24706
▁Court	-9.24723
iti	-9.2475
▁met	-9.24872
▁works	-9.24887
▁em	-9.25013
▁questions	-9.25018
▁ball	-9.25161
nce	-9.25164
▁below	-9.25212
▁seven	-9.25313
▁scene	-9.25387
▁California	-9.25465
▁included	-9.2549
▁goes	-9.2551
▁economy	-9.2552
▁term	-9.25547
▁Mon	-9.25603
▁sw	-9.25623
▁Pi	-9.25715
▁poor	-9.25755
▁word	-9.25782
▁club	-9.25798
▁lives	-9.25837
▁areas	-9.2596
▁June	-9.25963
▁damage	-9.26159
▁various	-9.26217
gi	-9.2626
tri	-9.26472
ki	-9.26485
fu	-9.26486
ition	-9.26541
rt	-9.26553
▁happened	-9.26607
▁happen	-9.26681
▁2010	-9.26835
▁events	-9.26894
▁para	-9.26911
ration	-9.2696
▁respect	-9.27014
ping	-9.27102
ug	-9.27351
ng	-9.27408
▁knew	-9.27426
▁father	-9.27688
▁education	-9.27816
▁red	-9.27837
use	-9.27855
▁fans	-9.27906
▁addition	-9.27952
▁#	-9.28008
▁growth	-9.28025
▁stage	-9.28035
ible	-9.28054
.)	-9.28095
ign	-9.281
▁friend	-9.2816
▁figure	-9.28172
▁inter	-9.28179
▁consider	-9.28182
▁killed	-9.28219
ric	-9.28291
▁Jo	-9.28293
▁defense	-9.28329
▁Sch	-9.28458
ology	-9.2858
▁fo	-9.28584
▁visit	-9.28765
▁spot	-9.28775
▁Ar	-9.28777
▁sound	-9.28794
▁object	-9.28838
▁Di	-9.2891
par	-9.28915
ja	-9.28957
▁50	-9.29016
og	-9.29067
▁watch	-9.29104
▁gas	-9.29107
▁considered	-9.29177
▁allowed	-9.29331
▁learn	-9.29456
tin	-9.29585
▁brought	-9.29673
▁100	-9.29732
▁safe	-9.29813
cing	-9.29903
▁tried	-9.29954
▁Du	-9.30153
▁letter	-9.30173
int	-9.30263
▁culture	-9.30284
▁effort	-9.30311
▁24	-9.30481
▁exist	-9.30497
▁offer	-9.30544
ens	-9.30639
▁Israel	-9.30667
▁mother	-9.30681
lor	-9.30691
▁Paul	-9.30841
▁town	-9.30864
day	-9.30896
ue	-9.31215
▁table	-9.31251
▁bank	-9.31318
▁Russia	-9.31429
ec	-9.3144
▁income	-9.31549
▁Europe	-9.31552
▁society	-9.31684
▁Then	-9.3178
▁attention	-9.31949
oc	-9.32027
▁upon	-9.32051
▁majority	-9.32102
▁July	-9.32153
lf	-9.32176
▁ra	-9.32229
▁color	-9.32341
▁eight	-9.3236
ack	-9.32387
▁Bi	-9.32476
▁January	-9.32511
▁Hu	-9.327
▁Park	-9.32979
▁drug	-9.32982
▁David	-9.32992
▁Russian	-9.3317
▁poll	-9.33186
▁Ko	-9.33229
▁ship	-9.33253
▁TV	-9.33368
▁particularly	-9.33709
▁21	-9.33718
▁n	-9.33739
▁avoid	-9.33977
cre	-9.34071
▁previous	-9.34158
▁coach	-9.34172
izing	-9.34202
gan	-9.34236
▁date	-9.3429
}	-9.34351
gar	-9.34479
▁Canada	-9.34524
ren	-9.34549
▁reports	-9.34569
▁ways	-9.34631
▁science	-9.34641
▁Her	-9.34656
▁writing	-9.34678
▁pressure	-9.34728
▁German	-9.34758
▁voice	-9.34774
ko	-9.34791
▁September	-9.34854
▁April	-9.34854
▁battle	-9.34859
cc	-9.34863
▁speed	-9.34978
rr	-9.35006
▁remember	-9.35023
▁image	-9.35159
van	-9.35211
pt	-9.35239
▁40	-9.3533
ore	-9.35361
▁le	-9.35363
12	-9.35378
▁firm	-9.35442
▁band	-9.35501
▁leaders	-9.35511
Q	-9.35514
▁Party	-9.35525
ear	-9.35727
▁forces	-9.35738
ries	-9.35808
▁plans	-9.35939
▁fit	-9.35971
▁Center	-9.35985
▁Friday	-9.36048
▁Com	-9.36159
▁ob	-9.3619
▁drive	-9.36244
▁round	-9.3632
str	-9.36518
▁Ex	-9.36622
▁India	-9.36674
▁standard	-9.36687
amp	-9.36812
▁sex	-9.37008
▁required	-9.37035
han	-9.37061
▁debate	-9.37101
▁2017	-9.37114
▁How	-9.37139
о	-9.37189
▁completely	-9.37325
▁leader	-9.37391
▁comment	-9.37611
▁capital	-9.37627
15	-9.3771
▁Su	-9.37942
▁First	-9.38002
▁talking	-9.38008
▁Fe	-9.38048
▁text	-9.38061
mit	-9.38098
mate	-9.38166
▁heard	-9.38322
▁modern	-9.38385
▁training	-9.38476
▁despite	-9.38567
This	-9.38606
▁Da	-9.3861
000	-9.38743
He	-9.38748
▁certainly	-9.38748
▁dead	-9.38749
▁Democratic	-9.38755
▁receive	-9.38811
▁Ru	-9.38942
▁Cha	-9.38945
▁medical	-9.39015
▁limit	-9.39022
cent	-9.39056
▁Tuesday	-9.39073
▁fast	-9.39109
▁meet	-9.39166
lar	-9.39194
▁physical	-9.39203
▁im	-9.3923
sur	-9.3925
▁sometimes	-9.39335
field	-9.39451
▁Since	-9.39493
▁Mi	-9.39617
hu	-9.39646
▁opportunity	-9.39677
▁perhaps	-9.39741
like	-9.39761
▁Senate	-9.39773
▁organization	-9.3978
▁serious	-9.39795
▁quality	-9.39815
▁cap	-9.39828
11	-9.39881
▁box	-9.3992
▁written	-9.39941
▁Black	-9.40071
▁count	-9.40097
▁rules	-9.40126
▁features	-9.40144
▁speech	-9.40221
▁Times	-9.40279
▁picture	-9.40317
▁sexual	-9.40393
▁Mc	-9.40397
▁Monday	-9.40456
tain	-9.40534
▁ban	-9.40552
▁products	-9.40639
yn	-9.40675
=	-9.4074
▁takes	-9.40893
▁stuff	-9.40928
▁reality	-9.4093
▁executive	-9.40961
▁leading	-9.41086
▁user	-9.41118
▁Christian	-9.41288
▁{	-9.41292
▁driver	-9.41306
▁middle	-9.41319
form	-9.41334
lt	-9.41351
ations	-9.41459
▁teams	-9.41474
▁complete	-9.41505
rate	-9.41506
▁exactly	-9.41603
ney	-9.41677
▁Bill	-9.4174
gue	-9.41763
▁Facebook	-9.41771
▁named	-9.41784
▁parents	-9.41863
▁credit	-9.41936
hy	-9.42013
all	-9.4203
▁machine	-9.42228
▁blood	-9.42261
▁structure	-9.42261
▁$2	-9.42262
▁launch	-9.4239
lk	-9.42399
▁influence	-9.42424
▁Most	-9.42443
▁hands	-9.42502
▁August	-9.42687
▁remain	-9.4277
rd	-9.42839
▁maintain	-9.42865
▁November	-9.42917
▁claim	-9.43021
q	-9.43024
▁purpose	-9.43049
▁contact	-9.4305
low	-9.43259
▁wall	-9.43284
▁interesting	-9.43441
▁software	-9.4348
▁century	-9.43494
AN	-9.43542
▁son	-9.43612
▁levels	-9.43691
▁card	-9.43692
▁criminal	-9.43711
▁voters	-9.43712
▁increased	-9.43775
▁December	-9.43844
ett	-9.43895
let	-9.43999
▁numbers	-9.44066
▁although	-9.44082
▁climate	-9.4411
vis	-9.44217
▁train	-9.44333
rea	-9.44442
uck	-9.44466
▁direct	-9.44478
▁finding	-9.44495
▁Can	-9.44704
▁appear	-9.44751
▁mass	-9.44752
▁described	-9.44952
▁Pr	-9.44957
▁directly	-9.45051
▁environment	-9.451
▁ne	-9.45201
down	-9.45285
work	-9.45405
▁concept	-9.45449
pl	-9.45562
▁looked	-9.45571
▁Red	-9.45577
ker	-9.45611
▁college	-9.45655
▁East	-9.45659
ification	-9.45681
▁finally	-9.45703
▁usually	-9.45789
▁2008	-9.45812
▁guy	-9.45946
▁Republicans	-9.45987
▁argument	-9.45994
uch	-9.4601
ically	-9.46028
▁giving	-9.46062
▁league	-9.4613
▁multiple	-9.46142
tur	-9.46184
▁path	-9.46255
▁difference	-9.46277
30	-9.46319
▁2009	-9.46352
You	-9.46506
▁provided	-9.46553
▁Chinese	-9.46607
▁feeling	-9.46641
ana	-9.46724
▁beyond	-9.46744
struct	-9.46745
▁via	-9.46754
▁designed	-9.46759
▁platform	-9.46812
▁hear	-9.46821
▁Ju	-9.46822
Z	-9.46828
▁cross	-9.46952
▁growing	-9.46954
ates	-9.47032
▁Although	-9.4706
▁solution	-9.47062
▁kill	-9.47133
▁Street	-9.47156
ium	-9.47253
ix	-9.47253
▁investment	-9.47386
▁UK	-9.47415
▁boy	-9.47443
▁rise	-9.47455
▁morning	-9.47465
▁religious	-9.47496
▁fine	-9.475
her	-9.47505
▁Lu	-9.47526
ken	-9.47529
▁nu	-9.47606
▁Air	-9.47649
over	-9.47729
▁systems	-9.47752
▁deep	-9.47781
▁judge	-9.47812
▁Thursday	-9.4788
▁da	-9.47916
▁additional	-9.47936
▁violence	-9.47983
▁brain	-9.48057
▁protest	-9.48218
▁throughout	-9.48234
▁door	-9.48287
▁multi	-9.48337
▁clean	-9.48436
ez	-9.48519
▁Many	-9.48585
▁extra	-9.48749
▁paid	-9.48753
fin	-9.48766
▁aren	-9.48811
▁j	-9.48852
▁thinking	-9.48888
▁continued	-9.4892
▁speak	-9.48931
▁produce	-9.49002
▁camera	-9.49059
▁station	-9.49071
▁Ad	-9.49125
ef	-9.49216
ris	-9.49226
ments	-9.49379
▁safety	-9.49491
ong	-9.49582
▁link	-9.49675
ash	-9.4968
);	-9.49753
▁biggest	-9.4981
▁si	-9.49822
▁Apple	-9.50064
▁Wednesday	-9.50084
▁Sunday	-9.50091
ised	-9.50154
▁thousands	-9.50245
▁October	-9.50261
ight	-9.50264
▁secret	-9.5027
▁changed	-9.50276
ek	-9.50277
▁civil	-9.50302
40	-9.50333
▁En	-9.50354
▁piece	-9.50369
▁join	-9.50395
▁agreement	-9.50399
▁cast	-9.50533
▁Fi	-9.50539
▁stories	-9.50581
▁separate	-9.50616
▁starting	-9.5062
▁Ge	-9.50709
▁treatment	-9.50743
▁toward	-9.50744
▁conference	-9.50758
▁Tra	-9.50789
cle	-9.50793
▁alone	-9.50804
▁nature	-9.5081
ock	-9.50857
cu	-9.50908
▁chief	-9.50937
99	-9.51002
▁dog	-9.51013
▁showed	-9.51072
▁fan	-9.51085
▁costs	-9.51087
▁property	-9.51201
▁summer	-9.51551
▁partner	-9.51623
▁accept	-9.51762
▁22	-9.51778
term	-9.518
▁From	-9.52014
▁serve	-9.52018
▁gr	-9.52086
▁remains	-9.52132
AR	-9.52215
▁Un	-9.52223
ular	-9.52285
cept	-9.52364
▁kids	-9.52468
▁Democrats	-9.52522
▁beginning	-9.52579
▁officers	-9.5258
▁rule	-9.52604
▁wouldn	-9.52643
▁display	-9.52728
▁location	-9.5292
13	-9.52995
▁News	-9.53032
▁gain	-9.53061
▁couldn	-9.53112
fer	-9.53151
▁jobs	-9.53204
▁powerful	-9.53251
▁fa	-9.53301
▁budget	-9.53356
▁pe	-9.53371
▁latest	-9.53381
▁eventually	-9.5343
▁)	-9.53483
my	-9.53507
▁Green	-9.53579
▁efforts	-9.53648
▁feature	-9.53679
▁claims	-9.53812
▁Because	-9.53996
▁sell	-9.54044
▁Ni	-9.54136
▁largest	-9.54237
rn	-9.5427
right	-9.54271
▁strike	-9.54277
▁Here	-9.54333
ich	-9.54369
▁su	-9.54418
air	-9.54452
ose	-9.54465
▁attacks	-9.54466
▁tend	-9.54507
▁Donald	-9.54534
ai	-9.54623
▁conservative	-9.5471
▁option	-9.54745
▁Col	-9.54825
▁conditions	-9.54925
▁murder	-9.54941
▁border	-9.55022
▁slow	-9.55049
▁traditional	-9.55088
▁spend	-9.55106
eg	-9.55134
▁bi	-9.55186
▁cent	-9.55216
▁Har	-9.55237
rant	-9.55249
zz	-9.55311
▁County	-9.55313
▁student	-9.55352
▁George	-9.5538
fo	-9.55402
14	-9.55422
▁instance	-9.55426
▁generation	-9.55469
▁calls	-9.55486
▁During	-9.55567
▁cool	-9.55605
▁Gi	-9.55626
oo	-9.55636
▁limited	-9.5571
▁Other	-9.5577
".	-9.55794
16	-9.55838
▁minister	-9.55846
▁Ben	-9.56041
▁Bu	-9.56078
▁Wi	-9.56081
ox	-9.56109
▁James	-9.56185
▁towards	-9.56202
▁experiment	-9.56212
▁Germany	-9.56218
▁episode	-9.56249
cul	-9.56292
▁dark	-9.563
▁moved	-9.56326
▁Game	-9.56387
▁presidential	-9.56414
▁candidate	-9.56458
▁passed	-9.56489
▁print	-9.56531
▁failed	-9.56591
▁style	-9.56613
▁compared	-9.56655
е	-9.56664
▁necessary	-9.5674
▁correct	-9.56778
mic	-9.56909
?”	-9.56921
well	-9.56981
▁football	-9.57008
▁document	-9.57069
▁charge	-9.57125
▁device	-9.57134
▁independent	-9.57169
▁professional	-9.57192
▁myself	-9.57332
▁reflect	-9.57347
aw	-9.57369
▁flow	-9.57415
▁behavior	-9.57423
▁shown	-9.57458
▁Well	-9.5752
▁loss	-9.57532
▁gone	-9.57566
▁includes	-9.57574
▁/	-9.57588
nk	-9.57616
▁ready	-9.57622
▁benefit	-9.57759
▁decades	-9.57763
▁opinion	-9.57804
▁easily	-9.57842
▁send	-9.5792
▁male	-9.57941
▁sha	-9.57965
▁forced	-9.58017
pos	-9.58027
▁eye	-9.58161
▁ha	-9.58169
▁officer	-9.58195
▁laws	-9.58244
▁Ki	-9.5831
▁Cor	-9.58334
▁nuclear	-9.58379
If	-9.58414
ans	-9.58431
▁artist	-9.58436
▁looks	-9.58453
▁23	-9.58506
car	-9.58562
▁EU	-9.58572
▁Michael	-9.5861
▁roll	-9.58622
▁unique	-9.5867
▁file	-9.58707
▁agency	-9.58736
tan	-9.58775
▁politics	-9.58803
ER	-9.58867
▁plant	-9.58889
▁map	-9.58913
▁truth	-9.58996
af	-9.59185
▁League	-9.59267
▁conversation	-9.59306
▁wife	-9.59316
▁policies	-9.59345
▁perfect	-9.5941
▁developed	-9.5945
▁incident	-9.5954
▁Sp	-9.59603
▁suit	-9.59608
▁King	-9.59618
▁overall	-9.5963
app	-9.59645
▁shift	-9.59656
ace	-9.59677
gn	-9.59703
▁brand	-9.59703
▁score	-9.59798
ify	-9.59832
▁immediately	-9.5985
▁English	-9.59851
ya	-9.59903
▁moving	-9.59913
▁studies	-9.59968
uff	-9.59979
▁senior	-9.60007
▁*	-9.60039
▁trust	-9.60068
▁mark	-9.60069
▁effects	-9.60102
-1	-9.60188
▁books	-9.60266
mar	-9.60386
▁task	-9.60405
▁bomb	-9.60451
▁prison	-9.60504
▁spending	-9.60658
▁ran	-9.60667
▁degree	-9.6068
▁followed	-9.6069
18	-9.60752
▁Texas	-9.6087
vent	-9.60914
ban	-9.60933
▁maybe	-9.60933
▁details	-9.61027
▁analysis	-9.61028
▁mission	-9.61167
▁Te	-9.61242
▁Earth	-9.61265
▁ju	-9.6127
▁positive	-9.61304
▁wide	-9.61342
▁Just	-9.61344
▁cu	-9.61434
▁guys	-9.61447
▁manager	-9.61471
▁:	-9.61591
▁update	-9.61611
▁measure	-9.61619
▁enjoy	-9.61666
▁London	-9.61701
▁fair	-9.6173
▁pa	-9.61767
▁trip	-9.61789
▁intelligence	-9.6186
▁families	-9.6194
pping	-9.62001
▁Our	-9.62138
▁agree	-9.622
▁ensure	-9.62384
ned	-9.62402
▁trial	-9.62424
▁grow	-9.62502
▁central	-9.6251
▁advantage	-9.62539
▁female	-9.62579
▁knowledge	-9.62619
▁reform	-9.62755
▁perform	-9.62763
▁lose	-9.63004
▁Iraq	-9.63039
80	-9.63155
▁Ch	-9.63169
▁helped	-9.63226
▁ver	-9.63273
▁signed	-9.63288
▁massive	-9.63335
▁note	-9.63365
▁appears	-9.63422
▁conflict	-9.63424
▁reasons	-9.63425
ea	-9.63451
▁More	-9.63548
▁album	-9.63627
▁February	-9.63667
▁reading	-9.63674
▁Saturday	-9.63748
▁Pre	-9.63781
▁song	-9.63875
▁save	-9.63883
shi	-9.64052
There	-9.64086
▁section	-9.64095
▁allows	-9.64141
▁Union	-9.64232
▁crisis	-9.64236
▁illegal	-9.64359
▁crowd	-9.64359
▁unit	-9.64372
▁mi	-9.64402
▁audience	-9.6444
chi	-9.64482
▁died	-9.6456
▁highly	-9.64583
▁kept	-9.64604
uring	-9.64607
▁critical	-9.64736
hen	-9.6474
nic	-9.648
▁activity	-9.64857
▁schools	-9.64861
▁wait	-9.64867
lock	-9.64986
▁cities	-9.6508
▁nice	-9.6508
▁par	-9.65135
▁connection	-9.65143
▁larger	-9.6516
▁w	-9.65163
▁yourself	-9.65164
▁throw	-9.65204
▁struggle	-9.65261
board	-9.65268
▁nor	-9.65309
▁successful	-9.65434
du	-9.65521
cer	-9.65539
▁concern	-9.65622
▁Don	-9.65702
▁Canadian	-9.65714
▁Over	-9.65743
▁effective	-9.65765
▁method	-9.65768
▁Je	-9.65775
▁wants	-9.65803
▁previously	-9.65879
part	-9.659
+	-9.65976
▁push	-9.66035
▁wi	-9.661
▁fully	-9.66121
▁che	-9.66142
▁individuals	-9.66178
ina	-9.66244
▁Minister	-9.66381
▁People	-9.66391
▁Post	-9.66406
▁Che	-9.66469
25	-9.6649
erry	-9.6662
▁happy	-9.66629
а	-9.66754
▁church	-9.66838
▁require	-9.66971
▁Q	-9.66975
▁setting	-9.67074
▁Gra	-9.67089
log	-9.67167
▁hospital	-9.67215
▁ahead	-9.67284
▁prior	-9.67378
▁customers	-9.67378
▁Bush	-9.67494
▁clearly	-9.67496
▁Iran	-9.67498
des	-9.67512
▁primary	-9.67551
rie	-9.67575
▁greater	-9.67611
▁disease	-9.67613
▁touch	-9.67643
▁shooting	-9.67649
▁French	-9.67678
▁Twitter	-9.6772
▁doubt	-9.67722
bit	-9.67742
▁Last	-9.67773
▁patients	-9.6778
▁Council	-9.67804
&	-9.67805
cal	-9.67806
▁citizens	-9.67894
ants	-9.67911
mail	-9.67995
▁double	-9.68018
can	-9.68037
▁regular	-9.68042
▁General	-9.68099
▁whatever	-9.68143
▁High	-9.68162
▁weapons	-9.68194
▁}	-9.6821
ked	-9.68251
▁Indian	-9.68351
▁Super	-9.68392
▁blog	-9.6841
и	-9.6844
▁Like	-9.68503
▁basic	-9.68594
▁sit	-9.68642
▁researchers	-9.68646
▁Robert	-9.68713
▁progress	-9.68786
▁adult	-9.68788
ane	-9.68836
not	-9.68842
▁suspect	-9.68879
▁worse	-9.6891
▁auto	-9.68911
▁spread	-9.68924
▁projects	-9.68942
net	-9.68944
nu	-9.6903
▁Syria	-9.69101
▁bus	-9.69147
▁traffic	-9.69208
▁beat	-9.69281
▁feet	-9.69284
▁characters	-9.69298
▁discussion	-9.69321
ute	-9.6933
meter	-9.69363
east	-9.69427
▁walk	-9.69435
▁draft	-9.69466
▁debt	-9.69515
▁pop	-9.69524
▁status	-9.69639
▁related	-9.69675
▁International	-9.69725
▁mostly	-9.69744
▁treat	-9.69862
▁counter	-9.69902
▁supposed	-9.69923
RE	-9.70004
uc	-9.70048
top	-9.701
▁choose	-9.70155
▁creating	-9.70156
▁surface	-9.70156
▁resources	-9.70178
rit	-9.70186
▁normal	-9.70247
graph	-9.70392
▁whom	-9.70479
▁Ed	-9.70487
▁Day	-9.70523
ern	-9.70555
▁benefits	-9.70596
▁rock	-9.70618
mal	-9.70667
▁sea	-9.70668
▁department	-9.70675
▁caused	-9.70701
▁br	-9.70737
▁exchange	-9.70768
▁Smith	-9.70806
▁tri	-9.70823
▁actions	-9.70935
cy	-9.70978
play	-9.70991
▁France	-9.71028
lit	-9.71036
17	-9.7106
▁seemed	-9.7106
▁eyes	-9.71061
▁meant	-9.71105
mber	-9.71188
▁actual	-9.71216
▁2007	-9.71267
▁drop	-9.71303
▁command	-9.7139
▁rates	-9.71397
▁parts	-9.71426
\	-9.71481
▁Internet	-9.7151
▁favor	-9.71534
cus	-9.71535
▁seat	-9.71555
No	-9.7156
00,000	-9.7157
ik	-9.71575
▁complex	-9.71588
▁reduce	-9.71617
▁pen	-9.71619
▁marriage	-9.71636
▁brother	-9.71638
bal	-9.71645
pri	-9.71756
mark	-9.71875
▁Instead	-9.7193
▁ideas	-9.71962
▁pull	-9.72024
jo	-9.72077
▁Nor	-9.72119
▁Sen	-9.72148
",	-9.72171
▁affect	-9.7225
▁sales	-9.72264
▁protection	-9.72271
▁strategy	-9.72297
▁annual	-9.72303
▁fuel	-9.72335
wi	-9.72387
Re	-9.7251
▁School	-9.72562
▁Police	-9.72614
▁ta	-9.72618
▁Mac	-9.72701
▁web	-9.72707
ib	-9.72742
ery	-9.72809
▁mental	-9.72819
▁27	-9.72826
atory	-9.72903
▁abuse	-9.72933
▁writer	-9.72942
▁Bas	-9.72951
berg	-9.72957
▁Sanders	-9.73001
ov	-9.73033
▁contain	-9.73072
▁park	-9.73098
▁produced	-9.73105
win	-9.73224
▁Sc	-9.73267
roll	-9.73355
▁cell	-9.73399
▁claimed	-9.73405
▁gold	-9.7348
▁arm	-9.73494
▁gives	-9.73558
place	-9.73583
▁sold	-9.73608
▁rep	-9.73636
▁hour	-9.73678
▁28	-9.73681
▁gets	-9.73702
▁labor	-9.73822
bar	-9.73841
▁direction	-9.73881
▁appeal	-9.73901
▁Bur	-9.73922
▁ended	-9.73924
dis	-9.74016
▁fighting	-9.74025
▁mu	-9.74123
▁improve	-9.74156
point	-9.74204
▁raise	-9.74221
ino	-9.74281
▁profit	-9.74343
▁26	-9.74437
▁stock	-9.7444
▁wish	-9.74501
▁dollars	-9.74638
▁calling	-9.74742
▁Service	-9.74757
▁thus	-9.74764
▁Let	-9.74764
60	-9.74863
▁appeared	-9.74919
▁kick	-9.7497
▁Gar	-9.7522
nger	-9.75245
▁funding	-9.75277
▁camp	-9.75278
▁def	-9.75365
▁Dan	-9.75418
▁freedom	-9.75453
▁1,	-9.75459
qua	-9.75488
▁wonder	-9.7553
▁que	-9.75539
][	-9.75565
▁weekend	-9.7557
▁rich	-9.75658
▁sun	-9.75668
▁60	-9.75677
▁lu	-9.75725
▁district	-9.75803
▁application	-9.75928
cro	-9.75981
rated	-9.76008
▁hot	-9.76058
▁Why	-9.76076
IS	-9.76101
▁parties	-9.76103
art	-9.76105
▁Western	-9.76141
▁Japan	-9.76174
▁handle	-9.76259
▁wave	-9.76319
▁street	-9.76414
▁represent	-9.76435
▁failure	-9.76459
5%	-9.76546
▁jump	-9.76561
wer	-9.76624
tz	-9.7672
▁committee	-9.76861
▁doctor	-9.76866
wing	-9.76911
br	-9.76918
▁stream	-9.76935
▁leaving	-9.76954
▁fund	-9.77029
▁guard	-9.77093
▁hearing	-9.77098
64	-9.77123
▁offered	-9.77135
▁weight	-9.77141
▁core	-9.77148
▁pitch	-9.77149
▁nine	-9.77152
▁discuss	-9.77219
ung	-9.77248
▁draw	-9.77299
▁critic	-9.77309
▁Brown	-9.77379
▁defend	-9.77419
lon	-9.77455
▁|	-9.77457
vin	-9.77536
▁generally	-9.77545
tant	-9.77561
▁+	-9.77635
▁award	-9.77637
▁Once	-9.77682
die	-9.777
▁wind	-9.77737
▁employees	-9.77743
▁north	-9.7775
ji	-9.77795
▁Hi	-9.77838
▁shut	-9.7784
▁Tom	-9.77873
▁temperature	-9.77884
▁union	-9.77886
pre	-9.77988
▁reached	-9.78009
▁meaning	-9.78042
▁heat	-9.78131
▁tree	-9.78132
ON	-9.78151
▁digital	-9.78213
▁adding	-9.7825
▁competition	-9.78305
pon	-9.78317
▁predict	-9.78341
fl	-9.78373
▁Shi	-9.78471
▁Dis	-9.78567
▁Ab	-9.78591
PA	-9.78664
▁Justice	-9.78698
▁era	-9.78724
zi	-9.78773
▁theory	-9.78804
teen	-9.78809
BC	-9.7881
▁miles	-9.78838
▁Min	-9.78895
▁Hol	-9.78898
ette	-9.78912
▁wild	-9.78925
▁scale	-9.78944
load	-9.78976
▁brief	-9.79059
night	-9.79093
med	-9.79145
ident	-9.79261
▁programs	-9.79267
▁h	-9.79388
▁wo	-9.7939
head	-9.79422
▁communication	-9.7958
▁Another	-9.79589
44	-9.79651
▁raised	-9.79701
bl	-9.79809
▁harm	-9.79839
▁learned	-9.79987
▁micro	-9.79992
▁pain	-9.79995
▁lines	-9.80037
▁responsible	-9.80056
▁understanding	-9.80064
://	-9.80156
▁seeing	-9.80255
”.	-9.80402
▁talent	-9.80446
▁Fo	-9.8047
▁species	-9.80515
gr	-9.80528
ray	-9.80581
▁daughter	-9.80583
▁etc	-9.80692
rc	-9.80794
▁coverage	-9.80802
▁comments	-9.80805
▁learning	-9.80824
book	-9.80929
▁opposition	-9.81161
▁Sun	-9.81353
▁occur	-9.81391
▁Those	-9.81402
▁memory	-9.81421
▁fish	-9.81438
▁novel	-9.81448
▁Research	-9.81451
▁favorite	-9.81471
▁goals	-9.81603
39	-9.81667
▁deliver	-9.81682
▁finish	-9.81684
▁factor	-9.81712
▁believed	-9.8174
vation	-9.81767
ook	-9.81783
▁insurance	-9.81888
ld	-9.81905
▁Britain	-9.8199
ult	-9.82124
▁authorities	-9.82212
▁basis	-9.82282
▁commercial	-9.82326
▁Also	-9.82335
get	-9.82345
▁Mark	-9.82356
▁decade	-9.82379
nn	-9.82382
▁planet	-9.8239
▁Bro	-9.82412
▁Right	-9.8248
duct	-9.82519
▁shape	-9.82546
ou	-9.82564
vol	-9.82632
▁operation	-9.82653
▁extremely	-9.82713
▁heavy	-9.82719
▁condition	-9.82739
65	-9.82785
ators	-9.82799
▁corner	-9.82829
▁becoming	-9.82878
cess	-9.82923
▁leg	-9.82924
▁notice	-9.82934
▁Cre	-9.82952
▁balance	-9.82963
▁blue	-9.82964
▁Commission	-9.83015
▁Bank	-9.83067
▁initial	-9.83092
▁highest	-9.83093
▁mar	-9.83103
lam	-9.83116
hop	-9.83151
▁promote	-9.83166
▁foot	-9.8323
▁trans	-9.8328
▁alternative	-9.83307
duc	-9.83317
▁concerns	-9.83362
▁Han	-9.83408
▁justice	-9.83419
▁options	-9.83441
▁dangerous	-9.8351
▁proposal	-9.83604
▁lawyer	-9.83619
▁Chicago	-9.83653
▁interested	-9.83667
▁respond	-9.83704
▁min	-9.83762
▁television	-9.83804
ari	-9.83838
▁Tri	-9.83847
▁Committee	-9.83852
▁associated	-9.83881
▁records	-9.83896
▁bra	-9.83916
▁depend	-9.83992
▁served	-9.83992
bin	-9.84128
▁Israeli	-9.84169
▁seek	-9.84203
▁Florida	-9.84249
▁floor	-9.84299
press	-9.84307
which	-9.84367
▁qua	-9.84412
▁radio	-9.84449
▁sources	-9.84488
▁Church	-9.84548
▁Ph	-9.84615
▁places	-9.84643
▁opponent	-9.84748
▁mention	-9.84795
elect	-9.84817
▁pattern	-9.84898
war	-9.85059
itt	-9.85062
▁Si	-9.85073
▁Two	-9.85154
▁operations	-9.85165
cket	-9.85187
ă	-9.852
▁dream	-9.852
▁revealed	-9.85215
▁quick	-9.85235
19	-9.85257
▁cha	-9.85266
mun	-9.85291
▁sentence	-9.85294
▁imagine	-9.853
▁management	-9.85333
▁Australia	-9.85402
▁terrorist	-9.85403
▁hundreds	-9.85417
▁describe	-9.85471
▁die	-9.85497
▁hair	-9.85503
▁invest	-9.85516
▁burn	-9.85545
▁bottom	-9.85602
▁bat	-9.8573
▁belief	-9.85754
▁Am	-9.85767
RA	-9.85835
▁flight	-9.85864
▁develop	-9.85876
▁lock	-9.85914
▁putting	-9.85922
▁happens	-9.85941
▁el	-9.86075
▁detect	-9.86082
▁values	-9.8609
▁entirely	-9.8614
▁survey	-9.86159
▁eat	-9.8617
▁professor	-9.8621
corp	-9.86211
▁internet	-9.86223
ED	-9.86301
▁stated	-9.86305
▁Hillary	-9.86387
AC	-9.86399
▁Yet	-9.86436
long	-9.86444
fect	-9.8651
▁tough	-9.86522
▁active	-9.86684
tom	-9.86749
OR	-9.86759
▁onto	-9.8676
▁communities	-9.86821
▁attorney	-9.86821
▁agreed	-9.86903
38	-9.86915
▁asking	-9.86922
▁Cla	-9.86956
▁haven	-9.87021
▁defeat	-9.87034
▁decide	-9.87038
▁pack	-9.87048
pic	-9.87066
▁Tre	-9.87069
▁prices	-9.87087
▁relatively	-9.8718
ade	-9.8718
bel	-9.87182
▁proposed	-9.87232
▁error	-9.87241
gra	-9.87249
SA	-9.87336
▁Bay	-9.87348
▁willing	-9.87353
▁devices	-9.87374
▁Institute	-9.87385
▁vo	-9.87388
▁reference	-9.87457
▁easier	-9.87487
▁$3	-9.87497
range	-9.87503
▁opening	-9.87528
▁Muslim	-9.87533
▁paint	-9.87633
▁faith	-9.87694
▁catch	-9.87735
▁mistake	-9.87755
▁package	-9.87781
▁religion	-9.87796
▁born	-9.87835
▁29	-9.87842
▁existing	-9.87883
▁fix	-9.87895
▁port	-9.87964
▁Wall	-9.87992
▁server	-9.88088
are	-9.8811
DA	-9.8813
▁desire	-9.88163
▁@	-9.882
▁legislation	-9.88262
▁straight	-9.88317
▁syn	-9.88322
▁England	-9.88365
▁Security	-9.88365
▁winning	-9.88384
▁wage	-9.88405
az	-9.8843
▁Mor	-9.88445
▁largely	-9.88488
fri	-9.8851
▁established	-9.88519
▁str	-9.88519
▁charges	-9.88613
▁holding	-9.88629
▁fr	-9.88669
▁construction	-9.88677
▁cook	-9.88692
▁quarter	-9.88771
▁appearance	-9.88774
ale	-9.88775
▁carry	-9.88815
н	-9.88833
tern	-9.88843
▁enforcement	-9.88904
cho	-9.88915
▁documents	-9.88917
▁false	-9.89043
▁noted	-9.89126
cial	-9.89127
ugh	-9.89162
▁reveal	-9.89238
▁conduct	-9.8927
▁tu	-9.89272
▁journalist	-9.89352
▁Los	-9.89387
▁negative	-9.89408
▁explained	-9.89457
▁revenue	-9.89461
▁sample	-9.89462
▁showing	-9.89527
▁shared	-9.89539
burg	-9.8954
▁pair	-9.89559
▁apply	-9.89664
even	-9.89665
▁Chi	-9.89802
unk	-9.89812
▁Bitcoin	-9.89829
▁Both	-9.89873
▁argue	-9.8995
▁leadership	-9.89954
▁Despite	-9.89987
▁attend	-9.89996
ju	-9.90046
but	-9.90115
▁fresh	-9.90146
▁Bra	-9.90246
▁context	-9.90262
▁scientists	-9.90282
▁famous	-9.90305
▁client	-9.90357
▁suggest	-9.90361
▁Their	-9.90435
▁residents	-9.90516
▁Art	-9.90537
▁Army	-9.9056
▁scar	-9.9063
ender	-9.90642
{	-9.90651
01	-9.90666
▁opt	-9.90696
55	-9.90808
Ma	-9.90815
▁rid	-9.90818
▁connect	-9.90825
▁£	-9.90827
lies	-9.90851
iz	-9.90874
▁smaller	-9.90881
MA	-9.90923
ties	-9.90928
70	-9.90928
cha	-9.90938
▁cash	-9.90969
▁spec	-9.91024
▁south	-9.91097
▁allowing	-9.91139
▁Vo	-9.91198
dra	-9.912
▁provides	-9.91218
▁shoot	-9.91245
▁providing	-9.91261
▁issued	-9.91291
▁Inter	-9.91361
▁Ku	-9.91366
pen	-9.91658
▁supply	-9.91689
▁truly	-9.91689
hal	-9.91703
len	-9.91716
ole	-9.91739
▁trouble	-9.91742
▁Ste	-9.91817
▁expand	-9.91831
▁trend	-9.91855
▁Sal	-9.91929
▁green	-9.91958
▁principle	-9.92065
▁stick	-9.92121
pper	-9.92168
▁housing	-9.92173
gress	-9.92212
▁Great	-9.92283
illa	-9.9236
▁pi	-9.92366
▁sector	-9.92417
▁purchase	-9.92466
▁images	-9.92505
▁collection	-9.92543
▁Em	-9.92584
▁wa	-9.92589
▁panel	-9.92606
▁promise	-9.92629
They	-9.92639
▁Richard	-9.92659
▁broad	-9.92672
▁girl	-9.92723
round	-9.92723
IN	-9.92763
▁solar	-9.92878
ES	-9.92967
▁Pu	-9.92978
▁Peter	-9.93074
ST	-9.93182
▁Ke	-9.93234
▁Office	-9.93285
▁2006	-9.93396
▁cancer	-9.93401
▁engine	-9.93502
maker	-9.93526
▁driving	-9.93584
▁assault	-9.93591
▁window	-9.936
list	-9.93604
▁victory	-9.93638
▁returned	-9.93645
47	-9.93726
▁bear	-9.93783
▁cards	-9.93839
▁regard	-9.9389
▁hero	-9.93912
▁lie	-9.93936
▁discovered	-9.93973
own	-9.9405
▁presence	-9.94082
life	-9.94101
▁African	-9.94104
▁regime	-9.94156
read	-9.94237
▁please	-9.94272
ency	-9.94305
▁collect	-9.94386
▁Korea	-9.94425
▁80	-9.94498
aging	-9.94502
▁activities	-9.94517
je	-9.94568
▁component	-9.94572
▁offensive	-9.94572
▁Pat	-9.94665
▁grand	-9.94674
▁Br	-9.9468
▁Hill	-9.94707
▁confirmed	-9.94772
▁planning	-9.94797
▁Supreme	-9.94849
▁FBI	-9.94849
▁cla	-9.94879
▁cells	-9.94887
▁moral	-9.94888
5,000	-9.94903
▁ice	-9.94916
arch	-9.94928
▁length	-9.94934
lum	-9.95027
▁switch	-9.95042
▁hack	-9.95098
▁secure	-9.95191
matic	-9.95206
EC	-9.95252
ax	-9.95266
▁route	-9.9528
key	-9.95294
▁Association	-9.95348
ame	-9.95438
▁Today	-9.95461
▁useful	-9.95519
ient	-9.95531
▁liberal	-9.95573
▁Japanese	-9.95577
▁offers	-9.95596
▁killing	-9.95715
▁strength	-9.95745
▁items	-9.95781
▁therefore	-9.95851
$	-9.95868
▁supported	-9.95878
▁photo	-9.95884
▁signal	-9.95907
▁dec	-9.96055
68	-9.96076
don	-9.96088
▁farm	-9.96131
▁Frank	-9.96138
▁Sta	-9.96168
▁identify	-9.96188
▁Cup	-9.96231
▁Health	-9.96246
▁stress	-9.96249
CA	-9.96258
▁II	-9.96269
▁Win	-9.96284
char	-9.96289
▁Sh	-9.96297
▁continues	-9.96305
▁technical	-9.96356
gate	-9.96357
▁Martin	-9.96408
room	-9.96433
▁domestic	-9.96523
▁Mike	-9.96601
▁animals	-9.96612
▁label	-9.96699
▁birth	-9.9674
loc	-9.96783
▁requires	-9.96839
▁smart	-9.9686
▁90	-9.96885
▁aware	-9.96907
▁placed	-9.96927
▁attract	-9.96992
▁chart	-9.96997
▁cars	-9.97042
temp	-9.97052
▁(19	-9.97096
ville	-9.97102
ford	-9.97166
▁worst	-9.97201
▁opened	-9.97291
▁tools	-9.97332
▁spoke	-9.97333
ria	-9.97413
▁tour	-9.97421
▁environmental	-9.97453
hood	-9.97511
▁names	-9.97561
▁Chris	-9.97573
▁photograph	-9.97662
▁suggested	-9.97663
▁arrested	-9.97668
▁supporters	-9.97684
500	-9.97756
▁vision	-9.97764
▁weak	-9.97781
▁NFL	-9.97785
▁definitely	-9.97884
45	-9.98063
▁mode	-9.98074
▁Reg	-9.98117
▁vehicle	-9.98138
▁monitor	-9.98169
▁daily	-9.98177
▁fi	-9.98182
▁taxes	-9.98223
itch	-9.98293
lip	-9.9836
▁telling	-9.98361
lly	-9.98364
▁payment	-9.98392
lash	-9.98394
90	-9.98442
▁zone	-9.9846
▁focused	-9.98514
ending	-9.9852
▁2000	-9.98541
▁introduced	-9.98555
▁mentioned	-9.98561
▁stopped	-9.98562
poli	-9.98597
42	-9.9866
state	-9.98722
▁drugs	-9.98753
▁types	-9.9882
▁launched	-9.9892
▁Nation	-9.98929
▁Ya	-9.9895
arian	-9.99023
py	-9.99163
▁load	-9.99186
▁Under	-9.99187
85	-9.99197
▁kid	-9.99199
▁Islamic	-9.99265
▁authority	-9.9927
view	-9.99271
▁master	-9.99292
▁defensive	-9.9932
oth	-9.99415
▁arrest	-9.99425
vel	-9.99433
▁scientific	-9.99436
uk	-9.99451
ese	-9.99462
▁older	-9.99481
▁ultimately	-9.99493
▁capacity	-9.99552
▁restaurant	-9.99552
fully	-9.9962
▁Ver	-9.99673
▁joined	-9.99703
▁listen	-9.99827
▁fill	-9.99894
▁commission	-9.99905
▁refer	-9.99933
▁candidates	-9.99985
▁estimate	-10.0002
▁exception	-10.0008
▁Law	-10.0011
▁immigration	-10.0013
▁witness	-10.0013
▁session	-10.0014
▁dozen	-10.0015
gel	-10.0016
print	-10.0017
▁va	-10.0022
▁technique	-10.0025
▁committed	-10.0027
nal	-10.0031
▁businesses	-10.0031
▁gay	-10.0033
▁otherwise	-10.0035
▁(1	-10.0036
▁edge	-10.0036
▁adapt	-10.0037
▁sites	-10.0044
hand	-10.0051
▁PC	-10.0051
▁managed	-10.0054
▁abortion	-10.0054
RI	-10.0059
most	-10.0062
▁obvious	-10.0062
▁increasing	-10.0068
▁root	-10.007
▁becomes	-10.0071
▁familiar	-10.0072
▁testing	-10.0078
▁concerned	-10.0079
▁strange	-10.0083
▁Johnson	-10.0089
▁Jewish	-10.009
▁skin	-10.0093
lat	-10.0095
▁Str	-10.0095
wo	-10.0099
gal	-10.0106
▁solid	-10.0108
▁Big	-10.011
▁operate	-10.0114
ob	-10.0119
▁sleep	-10.0125
▁crew	-10.0125
▁hurt	-10.0126
▁cheap	-10.0128
▁advance	-10.0132
▁fellow	-10.0132
AM	-10.0132
▁Comp	-10.0136
▁Sea	-10.0136
▁transform	-10.0138
▁tr	-10.0143
▁fee	-10.0144
cap	-10.0145
▁broke	-10.0146
▁watching	-10.0149
ched	-10.0158
org	-10.0158
▁prove	-10.0159
ball	-10.0162
▁internal	-10.0164
▁vast	-10.0177
bil	-10.0182
▁Thank	-10.0184
But	-10.0188
▁enter	-10.019
▁identified	-10.019
▁Will	-10.0195
ani	-10.0197
▁Any	-10.0197
▁shock	-10.0198
▁closed	-10.0201
▁distance	-10.0202
▁select	-10.0203
▁slightly	-10.0205
▁31	-10.0211
gin	-10.0221
cker	-10.0245
▁suggests	-10.0251
What	-10.0252
▁neighborhood	-10.0256
?"	-10.0259
▁millions	-10.0262
▁equal	-10.0266
▁GOP	-10.0268
▁Pan	-10.0268
late	-10.0269
▁skill	-10.0281
▁variety	-10.0286
bor	-10.0287
aries	-10.0294
▁background	-10.0295
cip	-10.031
▁corporate	-10.0322
▁Ti	-10.0327
CC	-10.0331
ano	-10.0333
▁bio	-10.0334
▁victims	-10.0351
▁runs	-10.0358
▁shall	-10.036
▁fell	-10.036
▁standing	-10.0364
▁agencies	-10.037
▁Africa	-10.0373
▁Microsoft	-10.0376
▁Cu	-10.0376
▁caught	-10.0382
▁hate	-10.0386
▁transfer	-10.0387
mes	-10.0388
▁gender	-10.0391
cr	-10.0395
▁Cal	-10.0397
▁percentage	-10.0399
▁husband	-10.04
▁accident	-10.04
▁Mexico	-10.0406
86	-10.0407
▁Every	-10.041
▁identity	-10.0412
▁banks	-10.0413
▁offering	-10.0415
▁waiting	-10.0423
▁pr	-10.0426
cies	-10.0431
▁ste	-10.0433
ero	-10.0437
▁channel	-10.0443
cut	-10.0452
▁Palestinian	-10.0455
▁interests	-10.0458
▁Force	-10.0459
▁shop	-10.0464
▁removed	-10.0477
▁hum	-10.0484
ological	-10.0488
▁funds	-10.049
▁planned	-10.0494
under	-10.05
some	-10.0505
▁70	-10.0507
▁flag	-10.0507
▁posted	-10.0515
-20	-10.0518
▁Hall	-10.0521
▁colon	-10.0522
▁increasingly	-10.0526
To	-10.0531
▁confirm	-10.0532
▁determine	-10.0537
▁Pakistan	-10.0541
▁beautiful	-10.0541
▁license	-10.0541
house	-10.0542
43	-10.0543
▁dropped	-10.0543
▁keeping	-10.0546
▁amazing	-10.0547
▁arrived	-10.0548
▁accused	-10.055
▁exercise	-10.0553
▁skills	-10.0555
mig	-10.0558
▁Group	-10.0567
put	-10.0568
TC	-10.0569
verse	-10.0571
▁newspaper	-10.0571
▁classic	-10.0575
▁guess	-10.0578
▁impossible	-10.0584
vic	-10.0604
▁peace	-10.0607
▁Free	-10.0608
▁visual	-10.0609
vid	-10.0614
ski	-10.0615
wise	-10.0621
▁et	-10.0628
▁Ken	-10.0635
▁models	-10.0641
▁blow	-10.0645
ama	-10.0648
▁insist	-10.065
▁Though	-10.0652
▁Angeles	-10.0652
▁prime	-10.0654
TA	-10.0654
▁bin	-10.0659
ache	-10.0673
46	-10.0677
▁mix	-10.0694
ok	-10.0697
rg	-10.0698
▁presented	-10.0699
ement	-10.0701
▁Government	-10.0708
▁division	-10.071
▁cultural	-10.0712
-2	-10.0714
dia	-10.0715
ential	-10.0715
▁cat	-10.0719
▁pur	-10.072
town	-10.0736
▁pla	-10.0749
IT	-10.075
▁Matt	-10.0755
▁net	-10.0757
with	-10.0759
▁ill	-10.076
▁elements	-10.0763
▁reaction	-10.0764
▁organizations	-10.0771
▁App	-10.0773
▁unless	-10.0777
▁metal	-10.0777
▁log	-10.078
▁2005	-10.0788
▁organ	-10.0792
stitution	-10.0792
▁enable	-10.0792
▁intended	-10.0793
▁twice	-10.0796
▁mobile	-10.0797
▁historical	-10.08
▁minimum	-10.0802
▁developers	-10.0803
ux	-10.0807
▁Va	-10.0811
▁Photo	-10.0813
▁fourth	-10.0819
SS	-10.0824
▁notes	-10.0829
season	-10.083
▁Fox	-10.0831
▁highlight	-10.0849
▁prospect	-10.086
▁charged	-10.086
▁Thomas	-10.0866
▁UN	-10.0873
pan	-10.0884
▁Ryan	-10.0885
▁div	-10.0889
new	-10.0892
▁losing	-10.0897
▁owner	-10.0898
▁marijuana	-10.0898
cher	-10.09
▁girls	-10.0902
▁Windows	-10.0904
ising	-10.0907
▁custom	-10.0907
56	-10.091
▁none	-10.091
▁Team	-10.0917
▁exp	-10.0923
▁CEO	-10.0923
▁Yes	-10.0926
▁remind	-10.0927
▁infrastructure	-10.0936
▁je	-10.0947
▁tool	-10.0953
▁expensive	-10.0955
▁fundamental	-10.0955
▁Kar	-10.0956
▁Syrian	-10.0965
▁$5	-10.0966
67	-10.0967
▁sport	-10.0975
▁gene	-10.0976
▁35	-10.098
now	-10.0987
▁occurred	-10.099
75	-10.0992
ense	-10.0992
ati	-10.0998
▁standards	-10.1
▁trail	-10.1
name	-10.1001
lay	-10.1005
And	-10.1006
▁bigger	-10.1009
▁blame	-10.1021
▁missing	-10.1027
▁surprise	-10.1031
▁expansion	-10.1039
▁Toronto	-10.1039
22	-10.104
mond	-10.1042
▁happening	-10.1055
rain	-10.1059
▁guarantee	-10.1065
▁appropriate	-10.1065
▁possibly	-10.1071
▁honest	-10.1071
▁pin	-10.1075
yl	-10.108
ison	-10.1083
rich	-10.1083
▁electric	-10.1086
▁Trans	-10.1093
▁layer	-10.1102
▁(20	-10.1108
▁River	-10.1109
▁developing	-10.111
▁cold	-10.111
▁victim	-10.1111
▁finished	-10.1118
▁island	-10.1119
▁measures	-10.112
▁compete	-10.1124
▁seeking	-10.1126
▁possibility	-10.1136
ease	-10.1139
▁decisions	-10.1141
▁fail	-10.115
▁speaking	-10.1151
▁consist	-10.1157
▁http	-10.1161
á	-10.1162
▁animal	-10.1166
▁Android	-10.1167
▁crash	-10.1171
▁ruling	-10.1176
quest	-10.1176
▁Sam	-10.1178
ump	-10.1181
ita	-10.119
▁ride	-10.1191
▁filed	-10.1191
>	-10.1197
non	-10.1198
▁Jones	-10.1204
▁fat	-10.1205
count	-10.1212
ome	-10.122
88	-10.1224
tar	-10.1225
rick	-10.1225
PS	-10.1226
▁frame	-10.123
▁paying	-10.1231
col	-10.1231
turn	-10.1239
gy	-10.1239
▁tech	-10.1241
▁chemical	-10.1241
That	-10.1245
▁army	-10.1258
87	-10.1262
▁Who	-10.1267
▁village	-10.1268
24	-10.1269
class	-10.127
tim	-10.127
▁apparently	-10.1277
▁combat	-10.1282
▁ticket	-10.1282
▁rare	-10.1286
▁tight	-10.1289
▁specifically	-10.1293
▁odd	-10.1297
▁governor	-10.1297
▁aid	-10.1297
▁studio	-10.1301
▁College	-10.1301
▁lived	-10.1305
▁delay	-10.1308
21	-10.1308
gger	-10.1308
cast	-10.1314
ush	-10.1318
▁leak	-10.1318
test	-10.1327
▁advocate	-10.1327
41	-10.1329
79	-10.133
ened	-10.133
▁conducted	-10.133
▁script	-10.1339
76	-10.1348
▁producer	-10.1351
empt	-10.1353
▁magazine	-10.1354
▁carried	-10.1354
▁carbon	-10.1356
()	-10.1363
▁complaint	-10.1364
▁sitting	-10.1366
pound	-10.1368
▁topic	-10.1369
▁Pen	-10.1376
IC	-10.1377
77	-10.1382
▁32	-10.1392
zy	-10.1393
▁Island	-10.1395
ily	-10.1396
ncy	-10.1398
▁aim	-10.1404
▁hasn	-10.1406
*	-10.1408
▁Arab	-10.1409
95	-10.1411
game	-10.1411
▁sports	-10.1413
▁helping	-10.1418
▁Prime	-10.1422
ography	-10.1423
▁pot	-10.1423
ough	-10.1427
▁lawsuit	-10.1428
▁drink	-10.1429
@	-10.1429
▁factors	-10.1432
▁estimated	-10.1434
▁elected	-10.1442
▁destroy	-10.1443
2)	-10.1445
▁laugh	-10.145
▁honor	-10.1455
▁Open	-10.1455
▁Rob	-10.1455
▁accounts	-10.1457
xi	-10.1461
▁1990	-10.1461
that	-10.1462
▁soldiers	-10.1467
▁relative	-10.1468
▁download	-10.1468
!”	-10.1469
▁mess	-10.1469
cade	-10.147
▁steps	-10.1474
▁manage	-10.1478
▁absolutely	-10.1482
▁construct	-10.1482
▁Your	-10.1482
▁worry	-10.1489
35	-10.1491
▁rating	-10.1497
run	-10.1503
▁Rock	-10.1516
▁civilian	-10.1521
▁applications	-10.1524
54	-10.1525
▁regarding	-10.1529
LE	-10.1531
cover	-10.1531
rin	-10.1534
cor	-10.1537
▁x	-10.1538
▁transition	-10.1542
▁Middle	-10.1543
▁explore	-10.155
ele	-10.1552
▁crack	-10.1555
▁Science	-10.1563
▁units	-10.1569
▁potentially	-10.1577
▁assist	-10.1578
▁contribution	-10.1584
▁escape	-10.1584
▁selling	-10.1587
▁Lake	-10.1588
▁Social	-10.159
▁detail	-10.159
▁Ser	-10.1591
▁realize	-10.1597
▁Secretary	-10.1598
▁pan	-10.16
▁comic	-10.1607
▁tweet	-10.1611
oon	-10.1614
take	-10.1616
▁perspective	-10.1618
▁injury	-10.1618
▁equipment	-10.1625
Mo	-10.1628
▁magic	-10.1634
▁Home	-10.1637
▁significantly	-10.1644
▁closer	-10.1645
tract	-10.1648
▁except	-10.1656
▁offense	-10.1657
▁feed	-10.1662
▁sat	-10.1664
▁stretch	-10.1666
72	-10.1669
ility	-10.167
▁hat	-10.1672
▁council	-10.1673
▁symbol	-10.1673
▁combination	-10.168
vy	-10.1683
▁Federal	-10.1687
▁Before	-10.1687
▁Virginia	-10.1687
▁hunt	-10.1687
▁representative	-10.1689
▁covered	-10.1691
29	-10.1694
▁Part	-10.1698
▁engineer	-10.1698
US	-10.1699
▁Foundation	-10.1707
59	-10.1709
▁veteran	-10.1714
Ch	-10.1716
▁widely	-10.172
▁distinct	-10.1721
▁expression	-10.1721
▁extreme	-10.1722
▁bike	-10.1724
▁hang	-10.1725
▁weapon	-10.1727
▁bringing	-10.173
look	-10.1734
▁quote	-10.1743
▁ski	-10.1748
▁remove	-10.1751
▁Inc	-10.1752
▁basically	-10.1753
ulation	-10.1754
▁Central	-10.1756
▁changing	-10.1763
▁views	-10.1765
▁loan	-10.1766
▁Dar	-10.1767
▁Please	-10.177
▁creation	-10.177
73	-10.1775
▁guide	-10.1777
stone	-10.1787
see	-10.1788
▁healthy	-10.1792
▁warning	-10.1795
▁indeed	-10.1799
vision	-10.1801
▁responsibility	-10.1805
▁spring	-10.1819
▁broadcast	-10.1819
When	-10.1822
▁Gold	-10.1823
▁Mal	-10.1823
▁institutions	-10.1824
▁tells	-10.1827
▁combined	-10.1827
▁plot	-10.1827
▁mine	-10.1828
▁editor	-10.1832
▁alleged	-10.1834
▁Tim	-10.1835
▁Op	-10.1837
ware	-10.1841
▁reward	-10.1844
hr	-10.1845
▁prepared	-10.1854
57	-10.1855
ifying	-10.1858
▁figures	-10.1859
▁broken	-10.1864
ica	-10.1872
▁Amazon	-10.1882
▁rival	-10.1882
▁Scott	-10.1883
▁operating	-10.1889
▁tra	-10.189
▁District	-10.1896
▁typically	-10.1901
▁experienced	-10.1901
gram	-10.1904
▁express	-10.1904
▁prop	-10.1908
▁grew	-10.191
▁wh	-10.1912
AT	-10.1912
▁Australian	-10.1917
▁Human	-10.1922
▁greatest	-10.1923
▁violation	-10.1924
▁herself	-10.1929
rack	-10.1933
tric	-10.1935
ote	-10.1937
For	-10.194
▁Prince	-10.1945
69	-10.1945
▁import	-10.1951
▁commitment	-10.1952
▁pal	-10.1953
CE	-10.1953
▁Public	-10.1959
▁troops	-10.1959
▁improvement	-10.1959
▁rush	-10.1961
▁2004	-10.1962
▁obviously	-10.1964
▁Up	-10.1966
▁Roman	-10.1971
▁van	-10.1978
53	-10.1978
▁sister	-10.1988
rap	-10.1997
▁rec	-10.2
▁Carolina	-10.2002
▁intention	-10.2007
▁industrial	-10.2012
52	-10.2016
▁recall	-10.2017
▁Far	-10.202
▁extend	-10.2022
▁located	-10.2023
▁remained	-10.203
free	-10.2036
rist	-10.2036
lation	-10.2037
▁origin	-10.2037
▁encourage	-10.2041
▁arms	-10.2045
▁Bob	-10.2047
del	-10.2052
▁smoke	-10.2052
▁\	-10.2054
pr	-10.2055
▁Ham	-10.2063
▁outcome	-10.2068
▁faster	-10.2073
▁solve	-10.2075
▁cuts	-10.2077
▁dress	-10.2081
▁cycle	-10.2081
▁criticism	-10.2085
ection	-10.2094
▁wood	-10.2094
ku	-10.21
▁argued	-10.2101
▁Back	-10.2102
▁volume	-10.2102
ura	-10.2103
▁Ly	-10.2107
▁William	-10.2109
▁aircraft	-10.2111
▁arch	-10.2116
▁warm	-10.2119
▁chain	-10.2123
called	-10.2129
▁retail	-10.2132
▁hole	-10.2137
▁opportunities	-10.2138
▁trick	-10.2139
▁fired	-10.2144
Con	-10.2145
bul	-10.2159
0.0	-10.2162
▁plants	-10.2163
▁tests	-10.2166
▁Men	-10.217
▁square	-10.2174
▁glass	-10.2174
▁Fu	-10.2175
body	-10.2176
bra	-10.2177
▁indicate	-10.2179
tell	-10.2188
▁surprising	-10.2189
▁bought	-10.2196
▁politicians	-10.2198
▁experts	-10.22
▁plenty	-10.2203
▁proceed	-10.2203
▁plus	-10.2205
So	-10.2207
▁disc	-10.2214
▁giant	-10.2218
[1]	-10.222
www	-10.2225
▁cor	-10.2226
▁sale	-10.2231
▁string	-10.2233
▁replace	-10.2234
▁owners	-10.2236
▁Joe	-10.2236
▁Cri	-10.2242
▁severe	-10.2242
▁1980	-10.2242
sky	-10.2243
▁refused	-10.2253
▁remaining	-10.2257
▁centre	-10.2257
74	-10.2257
▁sounds	-10.2258
▁thanks	-10.2261
path	-10.2261
р	-10.2262
▁involve	-10.2262
▁sharp	-10.227
83	-10.227
▁mod	-10.227
▁Nu	-10.2277
fire	-10.2279
▁strip	-10.228
▁recorded	-10.228
▁Mad	-10.2281
▁consumers	-10.2281
ID	-10.2285
▁radical	-10.2291
▁rank	-10.2298
zo	-10.2303
▁robot	-10.2306
pho	-10.2307
▁belong	-10.231
▁spirit	-10.2312
▁gap	-10.2313
▁Press	-10.2318
▁graduate	-10.232
▁click	-10.2322
▁parent	-10.2323
▁Good	-10.2326
▁stars	-10.2332
EA	-10.2338
▁tactic	-10.2342
▁completed	-10.2344
▁voting	-10.2347
▁wear	-10.2354
▁resolution	-10.2357
▁academic	-10.2357
▁vehicles	-10.2368
78	-10.237
▁copy	-10.2371
▁Work	-10.2374
51	-10.2379
▁Web	-10.2385
▁hi	-10.2388
▁plea	-10.2393
▁minute	-10.2394
▁craft	-10.2395
▁tournament	-10.2401
▁votes	-10.2408
▁photos	-10.2409
▁chair	-10.2411
▁effectively	-10.2413
▁wound	-10.2418
kh	-10.2425
▁Plan	-10.2429
▁winner	-10.2434
lia	-10.2434
▁Out	-10.2438
▁originally	-10.2438
▁creative	-10.2439
▁Islam	-10.2445
▁contrast	-10.2446
▁spokesman	-10.2446
▁button	-10.2449
wood	-10.2452
▁Cap	-10.2453
▁university	-10.2453
66	-10.2454
▁Francisco	-10.2455
▁grant	-10.2456
▁Adam	-10.2457
AL	-10.2458
▁Fire	-10.2459
blo	-10.2461
▁exclusive	-10.2461
▁declared	-10.2464
▁yards	-10.2465
▁reduced	-10.2465
82	-10.2469
▁streets	-10.2474
▁Korean	-10.2475
▁achieve	-10.2477
▁establish	-10.2479
ky	-10.2488
▁collapse	-10.2491
arm	-10.2497
▁numerous	-10.2498
▁random	-10.2499
▁split	-10.2502
than	-10.2506
▁survive	-10.2506
▁Brazil	-10.2506
т	-10.2513
▁opposed	-10.2516
▁Alex	-10.2519
ato	-10.252
▁Bla	-10.252
▁agent	-10.2522
▁install	-10.2524
ata	-10.2524
▁finger	-10.2532
▁bag	-10.2533
related	-10.2537
bon	-10.2543
▁conclusion	-10.2543
star	-10.2546
bol	-10.255
▁Sub	-10.2551
plo	-10.2552
▁considering	-10.2552
hol	-10.2556
▁excited	-10.2558
▁database	-10.256
SL	-10.256
▁champion	-10.2565
▁den	-10.2566
eth	-10.2567
▁implement	-10.2572
▁encounter	-10.2573
49	-10.2575
▁diet	-10.2581
▁2001	-10.2582
Each	-10.2583
▁god	-10.2592
▁admit	-10.2595
▁comparison	-10.2596
58	-10.2603
▁Catholic	-10.2604
81	-10.2607
▁violent	-10.2611
▁bodies	-10.2611
▁sought	-10.2611
▁earth	-10.2612
▁prefer	-10.2613
▁weren	-10.2614
▁rent	-10.2617
▁participate	-10.2619
▁scheme	-10.2619
▁Blue	-10.2619
gon	-10.2621
▁saving	-10.263
hor	-10.2634
▁filled	-10.2636
▁soft	-10.2638
▁Paris	-10.2645
une	-10.2647
▁recruit	-10.2649
▁talked	-10.2651
ific	-10.2651
▁confidence	-10.2657
▁ourselves	-10.2657
rum	-10.2659
▁affected	-10.266
▁Louis	-10.2664
duction	-10.2667
▁Cur	-10.268
▁Exp	-10.2697
32	-10.2701
position	-10.2702
▁expressed	-10.2705
▁turning	-10.271
▁passing	-10.2716
box	-10.2719
▁taste	-10.2722
▁capable	-10.2724
▁convert	-10.2726
hill	-10.2728
level	-10.2729
▁Tu	-10.2731
▁Second	-10.2733
▁lay	-10.2734
▁hotel	-10.2735
▁plane	-10.2736
▁determined	-10.2737
▁deck	-10.2738
nar	-10.2741
▁rail	-10.2742
▁publicly	-10.2743
▁treated	-10.2749
▁minor	-10.2752
ET	-10.2753
▁column	-10.2771
62	-10.2779
▁essentially	-10.2788
▁2003	-10.2793
▁Afghanistan	-10.2794
▁truck	-10.2795
▁$4	-10.2809
▁flat	-10.281
▁habit	-10.2812
▁tie	-10.2812
▁voted	-10.2814
standing	-10.2814
▁jail	-10.2818
1%	-10.2818
28	-10.2818
▁privacy	-10.2825
▁tank	-10.2827
AP	-10.2828
pel	-10.2833
▁welcome	-10.2833
▁pointed	-10.2834
63	-10.2836
▁deploy	-10.2841
▁Chief	-10.2842
▁elite	-10.2844
▁aggressive	-10.2856
phy	-10.286
born	-10.2863
-3	-10.2866
nne	-10.2867
▁pulled	-10.2867
▁Jeff	-10.287
ram	-10.2872
▁USA	-10.2872
▁200	-10.2878
▁surrounding	-10.2879
▁iron	-10.2884
ima	-10.2885
▁ideal	-10.2887
power	-10.2892
acy	-10.2895
▁boost	-10.2904
▁motor	-10.2908
▁valid	-10.2911
▁pieces	-10.2913
water	-10.2915
▁differences	-10.2917
▁accurate	-10.2926
04	-10.2929
▁campus	-10.2936
NA	-10.2937
cen	-10.2939
▁Char	-10.294
▁corporation	-10.2942
▁tip	-10.2943
▁tradition	-10.295
▁assume	-10.2951
▁Only	-10.2952
▁connected	-10.2959
▁afford	-10.296
▁seriously	-10.2961
▁deter	-10.2962
▁rain	-10.2964
ivity	-10.2965
▁approved	-10.2966
▁facing	-10.2968
▁Book	-10.2969
▁recover	-10.297
▁bitcoin	-10.2973
▁cop	-10.299
▁earn	-10.2992
▁fairly	-10.2995
FA	-10.2998
stein	-10.2999
▁Meanwhile	-10.3005
▁finance	-10.3013
RO	-10.3014
▁roughly	-10.3019
▁native	-10.3025
more	-10.3026
▁neither	-10.3028
▁dismiss	-10.3036
▁Time	-10.3037
isation	-10.3038
48	-10.304
▁announcement	-10.304
▁decline	-10.304
yard	-10.3048
▁dev	-10.3049
▁generate	-10.3062
26	-10.3065
▁exploit	-10.3068
▁married	-10.3068
▁Still	-10.3068
▁Boston	-10.3069
▁element	-10.3071
▁Barack	-10.3072
71	-10.3073
▁Pol	-10.3074
▁Perhaps	-10.3076
shirt	-10.3082
▁urge	-10.3083
▁Christ	-10.3084
▁danger	-10.3084
liber	-10.3086
▁threaten	-10.3107
▁scenario	-10.3108
▁recognize	-10.3109
▁wearing	-10.3112
▁mountain	-10.3116
▁demo	-10.3119
American	-10.3121
▁prohibit	-10.3123
face	-10.3128
▁contest	-10.3128
▁consumer	-10.313
▁narrative	-10.3131
▁patient	-10.3136
ola	-10.3136
▁2018	-10.3136
▁methods	-10.3137
23	-10.3138
▁cloud	-10.3139
▁ongoing	-10.3141
ancy	-10.3152
27	-10.3156
▁semi	-10.3158
awn	-10.316
▁Val	-10.3161
▁CIA	-10.3162
▁Lee	-10.3163
▁Ban	-10.3167
▁unable	-10.3167
phi	-10.317
л	-10.3179
▁McC	-10.3191
▁joke	-10.3196
[2]	-10.3199
ada	-10.32
dom	-10.3202
MS	-10.3202
▁ordered	-10.3202
▁Journal	-10.3203
▁Jack	-10.3204
200	-10.3209
▁bull	-10.3215
OS	-10.3216
▁deserve	-10.3219
▁emotional	-10.322
fact	-10.3225
▁secretary	-10.3226
▁gift	-10.3228
▁Van	-10.3229
▁Williams	-10.3235
▁songs	-10.3238
▁sad	-10.3242
▁profile	-10.3244
▁debut	-10.3245
▁suffered	-10.3249
NC	-10.3254
Co	-10.3259
▁files	-10.326
▁investigate	-10.326
▁applied	-10.326
▁default	-10.326
▁wealth	-10.326
igh	-10.3273
hur	-10.3275
break	-10.3282
05	-10.3283
LA	-10.3289
▁Get	-10.3293
▁Muslims	-10.3297
▁supporting	-10.33
▁universe	-10.33
itz	-10.3302
▁lift	-10.3306
▁motion	-10.3308
▁fraud	-10.331
▁performed	-10.3314
▁extent	-10.3317
61	-10.3324
▁Steve	-10.3325
iver	-10.3326
where	-10.3327
hold	-10.3329
▁Gri	-10.3333
▁electronic	-10.3333
▁customer	-10.3337
SC	-10.3343
▁competitive	-10.3349
▁brew	-10.3351
▁confident	-10.3365
▁Er	-10.3368
▁Phil	-10.3369
▁accomplish	-10.3373
▁weather	-10.3374
▁importance	-10.3377
TH	-10.3377
▁somewhat	-10.3378
ase	-10.3381
▁phase	-10.3382
▁govern	-10.3382
▁grown	-10.3389
▁Bel	-10.3391
▁loved	-10.3391
▁yes	-10.3392
▁Year	-10.3393
▁CO	-10.3395
▁Director	-10.3395
▁Lan	-10.3404
▁alcohol	-10.3406
PD	-10.341
▁programme	-10.3413
Fi	-10.3416
conscious	-10.3423
SE	-10.343
nel	-10.343
▁franchise	-10.3431
▁tackle	-10.3431
EN	-10.3431
37	-10.3432
SP	-10.3438
▁definition	-10.3439
▁disappear	-10.3439
▁trigger	-10.344
▁agents	-10.3445
▁restrict	-10.3446
bert	-10.3446
▁Bri	-10.3446
▁existence	-10.3454
▁surveillance	-10.3455
▁45	-10.3462
▁drag	-10.3464
▁recording	-10.3465
▁Rep	-10.3471
▁progressive	-10.3475
3%	-10.3479
▁distribution	-10.348
▁reporting	-10.3491
▁foundation	-10.3491
▁breath	-10.3497
▁teaching	-10.3503
▁waste	-10.3503
▁quarterback	-10.3515
▁Grand	-10.3518
▁entered	-10.3521
▁enemy	-10.3522
▁Turkey	-10.3522
▁Hor	-10.3525
▁baby	-10.3528
gli	-10.3529
pat	-10.3529
▁urban	-10.353
▁genetic	-10.3531
▁Par	-10.3537
▁ring	-10.3542
nie	-10.3542
bre	-10.3548
bro	-10.3554
▁Land	-10.3558
▁proud	-10.356
▁linked	-10.3561
▁del	-10.3561
▁sum	-10.3561
▁advanced	-10.3562
▁guest	-10.3563
▁apart	-10.3564
▁shouldn	-10.3566
▁Maybe	-10.3567
▁replaced	-10.3574
▁discover	-10.3576
▁discussed	-10.3577
▁prompt	-10.358
▁portion	-10.3585
▁react	-10.3585
▁format	-10.3586
▁fu	-10.3586
▁explanation	-10.3588
▁formal	-10.3594
▁heavily	-10.3596
pot	-10.3597
▁sharing	-10.36
#	-10.3604
▁Ukraine	-10.3613
▁succeed	-10.3613
▁Soviet	-10.3613
▁transaction	-10.3614
▁suffering	-10.3619
6%	-10.3627
▁relevant	-10.363
▁coal	-10.3632
▁NA	-10.3637
▁sanction	-10.3638
▁Saudi	-10.3638
▁consistent	-10.3642
▁rising	-10.3642
100	-10.3656
▁permanent	-10.3663
▁1970	-10.3664
▁neighbor	-10.3671
▁investors	-10.3673
▁celebrate	-10.368
▁Tru	-10.3683
▁provision	-10.3684
▁sponsor	-10.3689
▁coast	-10.369
▁relations	-10.369
▁essential	-10.3695
▁zero	-10.3697
▁journey	-10.3706
▁speaker	-10.371
▁featured	-10.3719
▁Fla	-10.3733
rating	-10.3735
▁snow	-10.3736
▁latter	-10.3739
▁activists	-10.374
▁complain	-10.3744
▁joint	-10.3745
▁advice	-10.3748
▁substantial	-10.3748
▁Daniel	-10.3748
▁wing	-10.3749
▁schedule	-10.3752
plan	-10.3756
▁currency	-10.3756
▁Pla	-10.376
▁bottle	-10.3765
▁practical	-10.3765
400	-10.3771
▁possession	-10.3773
▁meat	-10.3776
▁mon	-10.3778
▁fashion	-10.3782
▁afternoon	-10.3782
▁branch	-10.3784
▁mechanism	-10.379
Th	-10.3791
door	-10.3794
▁initially	-10.3795
▁MP	-10.3796
▁hall	-10.3798
bla	-10.38
Pa	-10.3802
▁tear	-10.3803
▁Power	-10.381
▁forget	-10.3812
▁Port	-10.3813
▁coffee	-10.3816
▁tiny	-10.3822
TO	-10.3831
▁iPhone	-10.3833
▁scholar	-10.3833
▁dedicated	-10.3833
craft	-10.3833
ene	-10.3834
hon	-10.3836
▁manner	-10.3836
▁selection	-10.3841
-0	-10.3846
▁classes	-10.3848
augh	-10.3848
▁evolution	-10.3859
▁emergency	-10.3859
▁commit	-10.3859
▁fly	-10.3861
▁nearby	-10.3865
▁proper	-10.387
▁stone	-10.3874
post	-10.3876
▁quiet	-10.3876
▁Ireland	-10.3876
▁picked	-10.3878
▁Charles	-10.3887
roid	-10.3887
chan	-10.3889
Do	-10.389
▁rape	-10.3892
▁necessarily	-10.3893
▁democracy	-10.3893
▁pilot	-10.3902
▁bid	-10.3902
ously	-10.391
▁expert	-10.3913
▁peak	-10.3915
▁Michigan	-10.3919
▁household	-10.3924
▁wake	-10.3925
core	-10.3927
▁alien	-10.3931
▁revolution	-10.3933
▁reserve	-10.3936
▁ser	-10.3941
▁Four	-10.3942
rov	-10.395
wan	-10.3952
▁lobby	-10.3953
▁constant	-10.3955
▁inform	-10.3958
2%	-10.396
33	-10.3966
▁pure	-10.3966
▁Italy	-10.3967
▁hundred	-10.3968
▁younger	-10.3975
▁Lord	-10.3976
с	-10.3979
crim	-10.398
▁serving	-10.3982
▁Del	-10.3985
▁storage	-10.3988
▁ancient	-10.3991
▁accepted	-10.3992
▁graphic	-10.3992
▁Tro	-10.3994
vil	-10.3997
▁Jews	-10.3997
▁armed	-10.3998
▁Davis	-10.3999
1)	-10.4
▁alter	-10.4
!"	-10.4005
▁Vietnam	-10.4006
▁colleagues	-10.4006
▁dealing	-10.4009
though	-10.401
▁circumstances	-10.4014
▁library	-10.4014
▁agenda	-10.4016
▁affair	-10.4023
▁mainstream	-10.4024
ddle	-10.4027
▁bright	-10.4029
▁settlement	-10.4029
▁teachers	-10.4037
▁anywhere	-10.4039
▁Luc	-10.4051
style	-10.4051
▁consequences	-10.4062
▁assert	-10.4062
lie	-10.4069
▁unlikely	-10.4069
▁totally	-10.4074
▁Za	-10.4075
▁faced	-10.4078
▁admitted	-10.4079
▁Report	-10.4083
ei	-10.4091
▁spin	-10.4092
▁opposite	-10.4093
FC	-10.4097
▁height	-10.4097
▁Space	-10.4103
▁Sky	-10.4106
▁thank	-10.4109
▁Greek	-10.411
▁Long	-10.4116
▁defined	-10.4121
▁pool	-10.4122
08	-10.4124
▁correspond	-10.4128
▁denied	-10.4128
voc	-10.4134
▁association	-10.4137
▁dynamic	-10.4137
[3]	-10.4139
▁closely	-10.414
▁bound	-10.4149
▁Wo	-10.4149
▁Sur	-10.415
how	-10.4157
▁Jackson	-10.4158
▁transport	-10.4159
▁Project	-10.4163
▁vice	-10.4181
▁assets	-10.4188
▁controversial	-10.419
▁immigrants	-10.419
▁wheel	-10.419
▁attitude	-10.419
▁merely	-10.4192
▁publication	-10.4195
▁winter	-10.4205
▁Jan	-10.4206
De	-10.421
▁hardware	-10.4211
IL	-10.4216
▁reporters	-10.4219
▁youth	-10.4223
▁Senator	-10.4224
▁provider	-10.4234
▁represents	-10.4241
▁Brad	-10.4245
▁fewer	-10.4245
▁readers	-10.4258
▁territory	-10.4261
▁Hy	-10.4262
▁frequently	-10.4268
▁fiction	-10.427
▁efficient	-10.4273
iff	-10.4274
▁Society	-10.4279
▁harder	-10.4283
just	-10.4287
▁Latin	-10.4287
▁province	-10.4288
▁everybody	-10.4292
▁collective	-10.4297
▁observed	-10.4301
▁terr	-10.4304
▁Andrew	-10.4306
▁repeatedly	-10.4306
ologist	-10.4307
nan	-10.4307
▁resistance	-10.4308
▁excellent	-10.4315
▁apartment	-10.4315
▁upgrade	-10.4315
▁Real	-10.4316
ink	-10.4316
▁Ve	-10.4319
▁Note	-10.432
▁Sho	-10.4323
▁causing	-10.4324
8%	-10.4326
you	-10.4327
▁comfortable	-10.4328
▁chip	-10.4333
▁implementation	-10.4345
06	-10.4348
▁soul	-10.435
▁procedure	-10.4351
eng	-10.4356
▁impressive	-10.436
▁export	-10.436
vor	-10.4366
nda	-10.4368
▁teach	-10.4369
▁suicide	-10.4369
▁walking	-10.4369
▁buying	-10.4375
phone	-10.4376
▁approximately	-10.4377
mir	-10.438
ami	-10.4381
greg	-10.4385
▁Rose	-10.4394
▁impose	-10.4396
▁sustain	-10.4399
[4]	-10.44
▁plate	-10.4403
▁Ram	-10.4406
▁improved	-10.4407
▁alongside	-10.4415
▁earned	-10.4419
▁prominent	-10.4423
▁immediate	-10.4423
▁somehow	-10.4424
▁regulations	-10.443
found	-10.4433
▁delivered	-10.4434
▁capture	-10.4434
▁circle	-10.4441
07	-10.4446
▁examine	-10.4452
▁racial	-10.4452
iness	-10.4464
▁See	-10.4469
▁confront	-10.4471
▁marketing	-10.4478
▁Labour	-10.4478
▁Romney	-10.4478
▁drone	-10.4478
▁Egypt	-10.4484
▁responded	-10.4486
▁Constitution	-10.4489
▁listed	-10.4493
▁literally	-10.4496
▁reduction	-10.45
▁bunch	-10.4505
▁usual	-10.4505
▁input	-10.4506
Le	-10.4515
▁Take	-10.4515
▁interaction	-10.4517
▁Jim	-10.4519
road	-10.4522
▁entry	-10.4524
cycle	-10.4526
▁electricity	-10.453
Po	-10.4531
▁Board	-10.4533
who	-10.454
▁cable	-10.454
lib	-10.4542
▁facility	-10.4542
▁surprised	-10.4543
7%	-10.4545
▁Bell	-10.4548
ME	-10.455
law	-10.455
▁initiative	-10.4551
▁narrow	-10.456
▁ISIS	-10.456
bble	-10.4563
weight	-10.4563
▁Boy	-10.4564
ius	-10.4566
▁approval	-10.4569
ibility	-10.457
▁500	-10.4592
immer	-10.4594
▁meta	-10.4611
▁permit	-10.4613
▁volunteer	-10.4615
9%	-10.4617
▁anyway	-10.4619
▁Dec	-10.4621
▁reportedly	-10.4624
▁Unfortunately	-10.4625
▁remote	-10.4625
▁realized	-10.4625
▁output	-10.4629
bound	-10.463
een	-10.4641
ado	-10.4646
▁playoff	-10.4646
▁Tor	-10.4648
action	-10.4657
▁adjust	-10.4658
▁participants	-10.4664
▁referred	-10.4664
▁tea	-10.4665
▁allegedly	-10.467
▁assistant	-10.4676
50,000	-10.468
▁prosecutor	-10.468
▁Read	-10.4685
34	-10.4686
▁receiving	-10.469
Man	-10.4698
▁thread	-10.4699
▁33	-10.47
PR	-10.4703
ister	-10.4706
":	-10.4708
▁sky	-10.4712
▁retain	-10.4713
▁bond	-10.4716
▁Network	-10.4718
▁Age	-10.4733
▁decrease	-10.4736
▁regional	-10.4737
zen	-10.4739
▁Arizona	-10.4746
▁stood	-10.4746
▁Mil	-10.4756
▁Indeed	-10.4756
EL	-10.4766
uit	-10.4766
▁detailed	-10.477
▁inspired	-10.4774
▁2002	-10.4774
rib	-10.4774
▁Republic	-10.4778
▁Kim	-10.4789
▁hell	-10.4791
▁passenger	-10.4793
▁flood	-10.4793
▁Watch	-10.4793
▁pushing	-10.4798
▁analyst	-10.4802
▁Thus	-10.4803
var	-10.4804
▁knock	-10.4811
▁senator	-10.4811
▁Daily	-10.4813
▁missed	-10.4813
gene	-10.4815
▁interact	-10.4818
hn	-10.4819
▁dispute	-10.4822
▁lesson	-10.4825
▁Water	-10.4829
▁negotiation	-10.483
▁Among	-10.4832
▁Colorado	-10.484
▁extension	-10.484
▁southern	-10.4841
▁Asia	-10.4844
▁sick	-10.4847
▁missile	-10.4849
▁constantly	-10.485
▁constitutional	-10.4854
▁emissions	-10.4859
▁Christmas	-10.4859
▁Ohio	-10.486
fund	-10.4868
▁enemies	-10.4868
▁Queen	-10.4869
▁Life	-10.4877
▁crazy	-10.4878
▁slowly	-10.488
▁formed	-10.4882
fil	-10.4883
▁Conservative	-10.4887
▁sight	-10.4888
▁rebel	-10.4894
▁founder	-10.4897
ella	-10.49
▁promised	-10.4902
4%	-10.4902
itude	-10.4903
▁properties	-10.4907
▁Dia	-10.4912
▁Such	-10.4912
▁recommend	-10.4913
▁employer	-10.4915
▁poverty	-10.4916
liv	-10.4918
▁extended	-10.4918
▁hoping	-10.4921
▁flash	-10.4923
▁instrument	-10.4925
▁Jesus	-10.4926
▁contribute	-10.493
▁atmosphere	-10.4935
Al	-10.4936
CO	-10.4948
media	-10.4948
▁fixed	-10.4949
▁manufacturer	-10.4954
▁engage	-10.4958
TE	-10.4961
▁fake	-10.4962
▁mechanic	-10.4964
▁expense	-10.4964
▁terrorism	-10.4971
▁climb	-10.4973
▁reject	-10.4982
▁requirements	-10.499
▁fruit	-10.4993
09	-10.5
▁primarily	-10.5002
▁unusual	-10.5002
▁Ze	-10.5004
▁pushed	-10.5004
▁lit	-10.5009
▁parliament	-10.5011
▁Tech	-10.5014
▁exact	-10.5014
▁scheduled	-10.5016
▁Arm	-10.5019
▁Spi	-10.5019
▁storm	-10.5021
▁northern	-10.5022
▁boss	-10.5023
▁chairman	-10.5027
▁define	-10.503
▁involving	-10.5031
▁Italian	-10.5031
mbling	-10.5034
▁attempted	-10.5036
▁Olympic	-10.504
hether	-10.5041
shot	-10.5044
▁cancel	-10.5047
▁routine	-10.505
▁consult	-10.5053
mann	-10.5064
▁suddenly	-10.5064
▁drawn	-10.5065
▁Cle	-10.5066
tail	-10.5067
▁enhance	-10.5069
▁depth	-10.5069
▁evil	-10.5073
▁folks	-10.5074
96	-10.5076
36	-10.5079
gro	-10.5086
▁Sim	-10.5087
▁nominee	-10.5089
▁THE	-10.5089
▁reputation	-10.5098
▁domain	-10.5099
▁struck	-10.51
▁Joseph	-10.5109
▁properly	-10.511
800	-10.5113
▁carrying	-10.5114
▁tre	-10.5116
▁allegations	-10.5118
▁appreciate	-10.5118
▁Detroit	-10.5118
▁NBA	-10.5121
▁eliminate	-10.5127
▁Seattle	-10.5128
▁resign	-10.5129
▁pose	-10.5136
foot	-10.5137
▁resolve	-10.5137
▁plastic	-10.5137
▁Ali	-10.5138
▁edit	-10.5139
▁neuro	-10.514
▁Gen	-10.5141
link	-10.5145
▁Wisconsin	-10.5147
▁Wilson	-10.5147
▁Gene	-10.5152
▁Tour	-10.5155
▁injured	-10.5157
▁warned	-10.5164
▁incredibly	-10.5167
▁employee	-10.5167
My	-10.5171
eller	-10.5173
▁deeply	-10.5175
tribute	-10.5176
▁obtained	-10.5177
eva	-10.518
02	-10.5181
▁decent	-10.5182
3)	-10.5183
▁chose	-10.5184
▁reasonable	-10.5184
▁declined	-10.5185
▁ear	-10.5186
▁gear	-10.5186
▁sin	-10.5187
▁intellectual	-10.5196
▁pursue	-10.5196
▁acting	-10.5201
▁Play	-10.5205
▁boot	-10.5209
▁Finally	-10.5213
▁Spanish	-10.5215
▁sweet	-10.5216
holder	-10.5224
▁crucial	-10.5225
▁obtain	-10.5228
▁tall	-10.5232
▁variable	-10.5235
▁drawing	-10.5235
onic	-10.524
▁render	-10.5248
▁allies	-10.5248
▁promotion	-10.5255
▁memo	-10.5263
▁mayor	-10.5264
▁ocean	-10.5265
direct	-10.527
▁Vol	-10.5271
▁category	-10.5275
▁controlled	-10.5278
▁driven	-10.5286
▁tap	-10.53
La	-10.5305
▁targeted	-10.5307
▁AT	-10.5308
▁dollar	-10.5311
▁facilities	-10.5314
▁Young	-10.5317
▁embrace	-10.5324
▁mouth	-10.5326
gest	-10.5331
▁Gal	-10.5332
▁Arch	-10.5332
▁36	-10.5333
▁Bal	-10.5341
▁sufficient	-10.5341
▁dry	-10.535
▁east	-10.5351
▁Live	-10.5351
▁walked	-10.5352
▁exhibit	-10.5354
▁endorse	-10.5358
def	-10.5363
▁gaming	-10.5364
▁Stephen	-10.5364
▁violate	-10.5364
▁Wood	-10.5366
▁Sign	-10.5374
▁yesterday	-10.5384
2,000	-10.5388
▁Club	-10.5394
▁flu	-10.5397
84	-10.54
▁noticed	-10.5403
▁Defense	-10.5404
▁objective	-10.5405
Reuters	-10.5406
▁typical	-10.5407
ridge	-10.5412
▁falling	-10.5419
GB	-10.5424
▁pet	-10.5426
active	-10.5429
claim	-10.5431
▁Where	-10.5434
▁maximum	-10.5435
▁gotten	-10.5439
▁Cruz	-10.5443
▁BBC	-10.5447
angle	-10.5448
▁upper	-10.5452
▁Asian	-10.5452
MO	-10.5454
▁convention	-10.5455
▁thin	-10.5462
▁matches	-10.5465
▁shoe	-10.5466
31	-10.547
▁trading	-10.5476
▁warrant	-10.5481
zer	-10.5481
▁extensive	-10.5484
▁injuries	-10.5484
▁Ci	-10.5488
▁Show	-10.5491
▁technologies	-10.5494
▁patent	-10.5494
▁terror	-10.5504
▁execute	-10.5504
▁//	-10.5506
[6]	-10.5506
▁stronger	-10.5507
▁Edward	-10.5507
▁teacher	-10.5508
▁Wild	-10.5508
▁regularly	-10.5508
▁understood	-10.5514
▁Valley	-10.5527
▁34	-10.5527
▁steal	-10.5532
▁System	-10.5535
▁Civil	-10.5535
▁plug	-10.5535
▁guilty	-10.5542
▁scored	-10.5544
▁pledge	-10.5545
▁bird	-10.5548
▁strongly	-10.555
▁Road	-10.5557
known	-10.5557
pass	-10.556
03	-10.5569
OL	-10.5571
▁Hollywood	-10.5575
▁Cat	-10.5578
ulated	-10.5599
▁west	-10.5604
▁developer	-10.5604
▁battery	-10.5606
▁instant	-10.5608
▁stra	-10.5618
nova	-10.5623
")	-10.5627
▁upcoming	-10.5627
▁watched	-10.5633
▁unknown	-10.5633
▁Democrat	-10.5637
▁Jersey	-10.5637
▁disagree	-10.5647
▁gang	-10.5649
▁river	-10.5649
plic	-10.5651
▁observe	-10.5652
▁estate	-10.5653
▁mob	-10.5654
▁perfectly	-10.5657
▁cutting	-10.566
lution	-10.5663
▁dig	-10.5671
rite	-10.5674
▁virtual	-10.5681
▁assistance	-10.5682
▁sending	-10.5683
cord	-10.5686
▁yield	-10.5688
▁employment	-10.5691
▁organized	-10.5691
▁registered	-10.5694
▁mainly	-10.5696
worth	-10.5699
▁occasion	-10.57
▁designer	-10.5703
▁personally	-10.5704
▁row	-10.5705
▁stake	-10.5708
▁disaster	-10.5709
▁instruction	-10.571
ffer	-10.5712
leg	-10.5718
▁counsel	-10.5719
▁Southern	-10.5722
och	-10.573
▁installed	-10.5738
89	-10.574
▁complicated	-10.5741
▁pace	-10.5743
▁dominate	-10.5744
▁regardless	-10.5744
▁chosen	-10.5745
600	-10.5757
▁bug	-10.5761
▁concluded	-10.5762
▁exposed	-10.5762
▁tested	-10.5762
▁bridge	-10.5762
▁somewhere	-10.5762
fall	-10.5767
▁Add	-10.5775
▁Ten	-10.5778
▁Look	-10.578
▁claiming	-10.5784
▁headline	-10.5785
pur	-10.5788
▁establishment	-10.5789
▁Columbia	-10.5791
▁Cro	-10.5796
wn	-10.5798
▁attribut	-10.5806
OM	-10.5809
▁boat	-10.5812
▁sensor	-10.5812
▁strict	-10.5813
▁legend	-10.5816
▁dance	-10.5816
inter	-10.5819
▁myth	-10.5821
rag	-10.5822
▁proved	-10.5825
▁mini	-10.5826
▁defender	-10.583
▁smartphone	-10.5834
▁Kingdom	-10.5834
▁deny	-10.5839
▁exciting	-10.5844
▁captured	-10.5845
▁raising	-10.5845
▁cup	-10.5846
▁rap	-10.5847
▁soil	-10.5848
▁officially	-10.585
▁directed	-10.5851
▁Cho	-10.5852
▁selected	-10.5854
▁Three	-10.5855
▁Pop	-10.5863
▁horse	-10.5865
▁Corp	-10.5869
▁Gro	-10.5871
▁casual	-10.5875
▁Kevin	-10.5876
▁corruption	-10.5879
tech	-10.5879
CH	-10.5881
▁Stone	-10.5883
▁Def	-10.5885
▁Fair	-10.5887
▁ratio	-10.589
▁anxiety	-10.5896
▁incredible	-10.5896
▁Energy	-10.5896
▁chapter	-10.5896
making	-10.5902
▁engaged	-10.5905
▁Attorney	-10.5906
▁observation	-10.5906
Mar	-10.5907
98	-10.5908
▁Miss	-10.5909
▁terrible	-10.5918
▁eating	-10.5925
▁creature	-10.5928
▁smooth	-10.5928
▁wrap	-10.593
▁Eric	-10.5933
crat	-10.5936
▁philosophy	-10.5937
▁equivalent	-10.5938
▁suffer	-10.5946
▁bone	-10.5948
lick	-10.5955
▁demonstrate	-10.5955
▁borrow	-10.5959
▁alive	-10.5964
▁mixed	-10.5964
▁western	-10.5969
▁stuck	-10.597
IA	-10.5972
script	-10.5973
▁Spring	-10.5974
▁Women	-10.5982
▁DC	-10.5987
▁sequence	-10.5991
▁fra	-10.6
▁worried	-10.6002
▁Georgia	-10.6002
▁innovation	-10.6002
▁proof	-10.6004
▁excess	-10.6006
▁logic	-10.6008
▁destroyed	-10.601
▁Championship	-10.6024
▁adopted	-10.6025
▁thousand	-10.6028
▁county	-10.6031
▁Agency	-10.6045
rise	-10.6045
▁ignore	-10.6051
GA	-10.6053
▁elsewhere	-10.6056
▁LA	-10.606
▁rally	-10.6068
▁Award	-10.6068
[5]	-10.6069
▁Irish	-10.6077
▁praise	-10.6077
93	-10.6077
▁clock	-10.6084
▁squad	-10.6087
▁Liberal	-10.6087
▁rescue	-10.6087
▁thick	-10.6087
▁rejected	-10.6089
▁Given	-10.6091
HA	-10.6095
▁empty	-10.6098
type	-10.6103
▁ruled	-10.6105
eu	-10.6106
▁taught	-10.6108
▁informed	-10.611
97	-10.611
aka	-10.6119
▁condemn	-10.6119
TV	-10.613
▁Bowl	-10.6131
lb	-10.6133
▁1960	-10.6143
▁coin	-10.6144
▁worldwide	-10.6145
▁sugar	-10.6154
bat	-10.6155
oh	-10.6159
▁roster	-10.616
▁medium	-10.6162
▁pocket	-10.6165
scribe	-10.6168
▁Fra	-10.6168
▁($	-10.6173
▁Yu	-10.618
▁publisher	-10.6185
▁Dun	-10.6196
▁loud	-10.6201
94	-10.6203
":"	-10.6205
▁filter	-10.6206
‘	-10.621
▁threatened	-10.6212
▁scan	-10.6219
force	-10.622
▁VR	-10.6222
NS	-10.6223
▁deficit	-10.6227
▁Putin	-10.6229
front	-10.623
An	-10.6235
▁rub	-10.6242
kar	-10.6243
▁reverse	-10.6249
▁Carl	-10.6256
▁fur	-10.6259
▁valuable	-10.626
▁Houston	-10.626
▁championship	-10.6262
▁continuing	-10.6271
▁nobody	-10.6275
▁destruction	-10.6282
BA	-10.6292
source	-10.6299
▁Tele	-10.63
▁march	-10.6302
▁poly	-10.6302
▁disrupt	-10.6304
▁warming	-10.6309
▁geo	-10.6309
▁DNA	-10.6311
▁unfortunate	-10.6314
▁fifth	-10.6314
have	-10.6322
▁loop	-10.6324
▁partnership	-10.6329
▁minority	-10.6332
▁GM	-10.6339
▁weird	-10.634
▁1998	-10.6342
▁arrive	-10.6345
▁strategic	-10.6347
▁signing	-10.6348
▁Top	-10.6358
▁intervention	-10.6358
▁Through	-10.6359
▁mount	-10.636
▁Hunt	-10.636
▁insight	-10.6375
▁Call	-10.6376
Pro	-10.6379
aunt	-10.6379
▁mut	-10.6379
▁Week	-10.638
▁desperate	-10.638
▁exposure	-10.638
▁description	-10.638
▁automatically	-10.6382
▁notion	-10.6382
horn	-10.6383
▁emotion	-10.639
▁legitimate	-10.6391
▁coalition	-10.6393
▁intent	-10.6396
▁citizen	-10.64
▁Media	-10.6407
▁bias	-10.6411
▁spell	-10.6412
▁Bor	-10.642
▁Business	-10.6425
▁feedback	-10.6426
▁const	-10.6429
▁egg	-10.6429
▁granted	-10.6435
▁Rand	-10.6436
▁Mexican	-10.6436
▁taxpayer	-10.6436
IP	-10.6437
▁recovery	-10.6438
▁depending	-10.6441
▁anymore	-10.6446
▁lane	-10.6446
▁Roger	-10.6459
","	-10.646
▁$6	-10.6461
▁investigator	-10.6469
▁crop	-10.6472
▁hung	-10.6473
▁Battle	-10.6474
▁genuine	-10.648
▁manufacturing	-10.648
▁phrase	-10.648
▁Jr	-10.6485
▁Lau	-10.6485
Un	-10.6487
▁CNN	-10.6491
▁300	-10.6493
▁ballot	-10.6498
▁attacked	-10.6499
▁Jon	-10.6499
▁evolve	-10.6503
92	-10.6503
ida	-10.6507
▁Turn	-10.6511
-19	-10.6513
▁fought	-10.6514
bn	-10.6517
▁disorder	-10.6517
▁somebody	-10.6518
▁returning	-10.6523
▁recognition	-10.6525
word	-10.6526
▁Amendment	-10.6536
rous	-10.6544
▁operator	-10.6547
▁Labor	-10.6551
▁extract	-10.6552
▁drill	-10.6559
▁dinner	-10.6559
▁NASA	-10.6559
▁attended	-10.656
▁ST	-10.6565
▁shit	-10.6565
▁CD	-10.6568
▁Bull	-10.6568
▁rapidly	-10.6569
▁producing	-10.657
▁equi	-10.6574
▁Mary	-10.6579
▁Linux	-10.6581
spire	-10.6583
▁captain	-10.6584
cient	-10.6585
order	-10.6592
▁symptom	-10.6592
mus	-10.6594
▁Down	-10.6596
▁Without	-10.6597
person	-10.6598
▁scandal	-10.6604
▁virtually	-10.6611
▁Auto	-10.6613
▁Fri	-10.662
publish	-10.6624
▁salt	-10.6625
▁Dark	-10.6625
▁Foreign	-10.6626
▁Nov	-10.6629
▁blind	-10.6638
▁tail	-10.6646
▁recognized	-10.6647
▁algorithm	-10.6649
▁Yo	-10.6649
▁Royal	-10.665
▁intense	-10.665
▁Disney	-10.6651
▁Albert	-10.6653
▁historic	-10.6655
▁stable	-10.6657
ING	-10.6658
▁module	-10.666
▁Brian	-10.6666
▁protected	-10.6674
▁Miller	-10.6677
metric	-10.6679
Go	-10.6679
▁Greg	-10.6683
▁Major	-10.6683
Me	-10.6684
▁losses	-10.6688
1.5	-10.6689
▁holiday	-10.6694
▁widespread	-10.6694
▁cited	-10.6695
▁angry	-10.6695
▁framework	-10.6696
rian	-10.6697
▁tied	-10.67
▁journal	-10.6703
hour	-10.6713
▁visible	-10.6717
▁audio	-10.6718
GO	-10.672
▁unemployment	-10.6728
▁patch	-10.6729
▁interface	-10.673
▁About	-10.6734
▁apparent	-10.6736
▁collected	-10.6736
▁Minnesota	-10.674
▁steel	-10.674
▁portray	-10.6741
▁breaking	-10.6743
pol	-10.6747
▁funny	-10.6757
other	-10.6764
gie	-10.6769
▁privilege	-10.6774
▁preserve	-10.6774
%)	-10.6775
▁adopt	-10.6788
▁recommendation	-10.6798
▁edition	-10.6802
▁integrate	-10.6809
▁emerged	-10.6809
▁prepare	-10.6809
▁Sometimes	-10.6809
▁sand	-10.6811
PL	-10.6812
citation	-10.6813
▁successfully	-10.6817
▁adventure	-10.682
▁compromise	-10.682
▁enormous	-10.682
▁organisation	-10.6821
▁grade	-10.6827
▁entering	-10.6834
▁slip	-10.6836
▁peer	-10.6836
clud	-10.6838
▁emerge	-10.6844
page	-10.685
▁impl	-10.6851
▁NSA	-10.6852
▁Administration	-10.6855
▁interpret	-10.6855
▁slave	-10.6865
▁explicit	-10.6866
▁satellite	-10.6866
▁stadium	-10.6866
▁ethnic	-10.6866
boo	-10.6867
▁flying	-10.687
Ba	-10.6872
▁Nick	-10.6873
▁receiver	-10.6874
ambi	-10.6874
▁Love	-10.6877
▁premium	-10.6878
▁snap	-10.6882
▁expectations	-10.6884
▁depression	-10.6884
▁Mag	-10.6888
▁organize	-10.6889
▁Miami	-10.6891
▁tele	-10.6892
▁duty	-10.6894
▁consumption	-10.6901
▁Iowa	-10.6903
[7]	-10.6903
DE	-10.6906
▁$7	-10.691
▁protein	-10.6913
▁behalf	-10.6913
▁Jen	-10.6928
▁generated	-10.6935
▁tape	-10.6938
▁Eastern	-10.6938
▁unlike	-10.6945
▁cyber	-10.6948
▁surge	-10.6948
▁Next	-10.6948
▁Marc	-10.6948
high	-10.6957
▁drinking	-10.696
▁busy	-10.6969
▁Night	-10.6971
▁YouTube	-10.6971
▁liquid	-10.6971
▁prize	-10.6972
▁restrictions	-10.6974
▁aimed	-10.6974
▁rip	-10.6974
▁adviser	-10.6975
card	-10.698
▁48	-10.6981
▁Old	-10.6984
▁programming	-10.6984
▁defence	-10.6989
▁wire	-10.6997
▁>	-10.7005
▁rat	-10.7005
▁Steven	-10.7006
▁reporter	-10.7006
▁athlete	-10.7006
▁37	-10.7007
▁Unlike	-10.7009
▁personnel	-10.7009
▁represented	-10.7013
▁protesters	-10.7014
▁medicine	-10.7018
▁penalty	-10.7018
▁lawmakers	-10.7018
▁NE	-10.7022
▁bowl	-10.703
▁fault	-10.7034
VE	-10.7034
space	-10.7036
▁guitar	-10.7042
▁Which	-10.7042
▁hide	-10.7042
case	-10.7043
▁baseball	-10.7044
▁1999	-10.7048
▁exit	-10.705
▁engineering	-10.7051
▁amendment	-10.7053
▁shoulder	-10.7062
!)	-10.7064
▁lab	-10.7065
▁hired	-10.7067
▁Taliban	-10.7077
▁Kelly	-10.7079
▁stack	-10.7082
▁marked	-10.7083
▁comfort	-10.7083
▁wonderful	-10.7088
▁parking	-10.7089
▁LGBT	-10.7089
▁respectively	-10.7089
▁fuck	-10.709
▁weigh	-10.7091
▁Anti	-10.7092
▁margin	-10.7092
▁fiscal	-10.7093
▁vital	-10.7095
▁Best	-10.7098
▁advertising	-10.7101
▁Nazi	-10.7105
▁Sand	-10.7108
witch	-10.7111
▁substance	-10.7113
▁hidden	-10.7113
this	-10.7118
▁transit	-10.712
▁Jordan	-10.7124
▁racist	-10.7125
▁spark	-10.7125
▁repeat	-10.7126
▁lend	-10.7128
▁Stra	-10.7142
▁Mill	-10.7143
▁begun	-10.7149
▁assess	-10.7157
▁Company	-10.716
world	-10.7163
▁shadow	-10.7163
▁normally	-10.7163
llen	-10.717
▁rarely	-10.7173
▁Indiana	-10.7174
HO	-10.7175
▁Data	-10.7179
▁muscle	-10.7184
▁Imp	-10.7185
▁torture	-10.7186
▁carefully	-10.7188
AA	-10.7195
▁struggling	-10.7196
▁bullet	-10.7202
▁discrimination	-10.7208
▁acid	-10.721
▁75	-10.7214
▁Marine	-10.7225
▁sensitive	-10.7232
▁Education	-10.7232
▁exceed	-10.7232
pression	-10.7235
▁stem	-10.7236
▁assessment	-10.7241
▁Several	-10.7244
▁overwhelming	-10.7256
▁infection	-10.7257
▁processes	-10.7258
▁festival	-10.7268
▁Guardian	-10.727
▁spiritual	-10.727
▁reader	-10.7276
PC	-10.7278
ique	-10.7285
▁Spain	-10.7292
▁vocal	-10.7295
▁vary	-10.7302
▁neo	-10.7315
▁Mass	-10.7316
scale	-10.732
▁Key	-10.7322
▁Walker	-10.7329
▁Jay	-10.733
including	-10.7333
▁Fred	-10.7338
▁expanded	-10.734
▁laid	-10.7341
▁array	-10.7341
▁compound	-10.7343
▁1,000	-10.7344
▁1996	-10.7348
▁knee	-10.7354
zu	-10.7362
▁grid	-10.7363
stand	-10.7365
▁fantastic	-10.7365
▁universal	-10.7365
▁cry	-10.7366
▁passes	-10.7368
wide	-10.737
▁Harris	-10.7371
▁shell	-10.7372
▁Oregon	-10.7377
ifies	-10.7378
ground	-10.7388
▁mono	-10.7388
▁signature	-10.7389
▁consciousness	-10.7389
▁loyal	-10.739
▁invited	-10.7394
▁sheet	-10.7401
▁containing	-10.7406
▁rational	-10.7408
▁porn	-10.7408
How	-10.7412
▁refuse	-10.7417
▁consideration	-10.7427
▁translate	-10.7429
▁Sony	-10.7434
▁Ron	-10.7434
▁Ash	-10.7438
ika	-10.7439
code	-10.744
▁alarm	-10.7443
▁suggesting	-10.7443
▁flaw	-10.7446
runner	-10.7447
▁earning	-10.7449
▁concentration	-10.7451
▁repair	-10.7453
▁gained	-10.7453
crypt	-10.7454
▁humanity	-10.7455
▁handful	-10.7456
▁equally	-10.7457
▁visited	-10.7458
▁enjoyed	-10.7461
:30	-10.7462
▁cloth	-10.7462
BO	-10.7462
▁audit	-10.7468
▁Pacific	-10.7475
▁depict	-10.7476
▁everywhere	-10.748
▁rear	-10.7484
RC	-10.7486
▁vulnerable	-10.7487
▁Coast	-10.7488
▁compare	-10.7494
▁involvement	-10.7495
▁deeper	-10.7496
▁afraid	-10.75
care	-10.7503
▁Academy	-10.7512
▁console	-10.7513
▁copyright	-10.7513
▁surround	-10.7514
▁contend	-10.7519
▁Mel	-10.7519
▁persist	-10.7529
▁pump	-10.7532
▁downtown	-10.7534
▁burden	-10.7537
▁proven	-10.7542
▁external	-10.7549
▁recipe	-10.755
OT	-10.7554
▁Cross	-10.756
▁relief	-10.7562
▁reducing	-10.7562
Our	-10.7571
▁flavor	-10.7574
▁plain	-10.7577
▁purchased	-10.7581
▁failing	-10.759
▁Fall	-10.759
logical	-10.7591
▁enforce	-10.7597
▁segment	-10.7599
kill	-10.761
▁Pennsylvania	-10.7611
▁nomination	-10.7612
▁tension	-10.7612
▁Henry	-10.7612
▁possess	-10.7612
FO	-10.7621
▁sacrifice	-10.7624
▁proportion	-10.7624
▁clip	-10.7624
▁chat	-10.7625
▁jury	-10.7636
▁49	-10.7636
▁inflation	-10.7637
▁regulation	-10.7639
PP	-10.7641
▁restore	-10.7642
▁Parliament	-10.7649
▁fossil	-10.7649
▁scoring	-10.7649
700	-10.765
91	-10.7658
▁Hon	-10.7661
▁Philadelphia	-10.7662
▁implication	-10.7662
▁ownership	-10.7664
▁rose	-10.7668
▁Iraqi	-10.7668
▁assumption	-10.7674
▁shortly	-10.7675
▁Gla	-10.7676
2.5	-10.7682
▁introduce	-10.769
away	-10.769
▁loose	-10.7691
▁moderate	-10.7702
▁pit	-10.7707
▁execution	-10.7712
hou	-10.7715
▁Oh	-10.7718
▁Light	-10.7724
▁mirror	-10.7724
▁awesome	-10.7724
▁Dev	-10.7726
month	-10.7726
▁basketball	-10.7737
▁Northern	-10.7742
▁dish	-10.7742
▁listening	-10.7743
▁hip	-10.7758
▁Iranian	-10.7759
▁Development	-10.7762
▁rhetoric	-10.7762
EM	-10.777
▁airport	-10.7772
▁lens	-10.7777
▁Similar	-10.7788
▁uniform	-10.7788
▁McCain	-10.7788
▁brutal	-10.7788
LO	-10.7791
▁Max	-10.7795
▁Massachusetts	-10.78
▁Taylor	-10.78
hl	-10.7805
▁Harry	-10.7814
▁milk	-10.7816
▁hyper	-10.782
▁raid	-10.782
▁noise	-10.7822
▁Market	-10.7826
▁challenging	-10.7826
▁Policy	-10.7826
▁achieved	-10.7828
▁Full	-10.7835
azi	-10.7838
▁Batman	-10.7839
▁angle	-10.784
ounce	-10.7846
▁farmers	-10.7848
▁Test	-10.7849
▁Sports	-10.7854
▁inject	-10.7855
Com	-10.7856
▁premier	-10.7864
flow	-10.7873
open	-10.7876
▁neutral	-10.7877
▁Series	-10.789
▁attached	-10.789
▁barely	-10.7891
▁Thr	-10.7901
▁Global	-10.7903
▁browser	-10.7903
▁smile	-10.7903
▁Ana	-10.7904
▁$10	-10.7915
▁Having	-10.7916
▁petition	-10.7917
▁transportation	-10.7926
▁Dead	-10.7928
▁NHL	-10.7928
▁democratic	-10.7928
▁repeal	-10.7929
▁associate	-10.7934
▁punish	-10.7935
Ro	-10.7935
▁Gaza	-10.7935
▁suburb	-10.7942
asse	-10.7946
▁bread	-10.7946
▁saved	-10.7947
▁welfare	-10.7954
pay	-10.7959
▁register	-10.796
dependent	-10.796
▁trace	-10.796
hear	-10.7964
▁fold	-10.7965
▁blockchain	-10.7967
▁variation	-10.7967
▁seemingly	-10.7968
serving	-10.7975
MP	-10.7975
▁Rick	-10.7978
▁strengthen	-10.7979
▁hydro	-10.7981
▁landscape	-10.7981
▁Following	-10.8003
▁Special	-10.8007
connect	-10.8018
▁gonna	-10.8019
▁bonus	-10.802
Ar	-10.8026
▁Gov	-10.8027
Bo	-10.8029
▁voter	-10.8038
▁Euro	-10.8045
▁euro	-10.8045
▁Tan	-10.8047
▁Ray	-10.8047
▁resource	-10.8051
▁drama	-10.8055
▁disturb	-10.8058
▁rocket	-10.8058
▁creator	-10.8059
▁Program	-10.8061
3,000	-10.8064
▁resist	-10.8069
New	-10.8071
▁Empire	-10.8071
▁Hindu	-10.8071
▁quo	-10.8073
base	-10.8079
FL	-10.8081
▁parallel	-10.8084
▁priority	-10.8086
▁menu	-10.8097
▁discovery	-10.8097
▁twist	-10.8097
▁formation	-10.8098
▁versus	-10.8098
grade	-10.8099
▁slot	-10.8104
▁commander	-10.8106
▁settle	-10.8106
▁colour	-10.811
▁roof	-10.8116
▁Ven	-10.8119
rade	-10.812
▁implemented	-10.8121
▁careful	-10.8124
▁Bru	-10.8125
▁ranking	-10.8131
▁Angel	-10.8133
▁Conference	-10.8137
lov	-10.8138
▁suggestion	-10.8139
▁Cru	-10.8144
▁Economic	-10.815
▁eastern	-10.8151
▁Low	-10.8153
▁passage	-10.8155
▁repeated	-10.8162
▁Rather	-10.8163
▁Para	-10.8165
▁outrage	-10.817
▁competitor	-10.8176
▁horror	-10.8176
▁newsletter	-10.8176
sym	-10.8179
“	-10.8187
▁barrier	-10.819
▁Again	-10.82
▁conviction	-10.8203
▁Bernie	-10.8203
▁monster	-10.8206
▁lowest	-10.8209
▁Tony	-10.8211
▁deputy	-10.8216
▁acknowledge	-10.8223
aba	-10.8223
▁consume	-10.8223
▁testimony	-10.8229
▁rural	-10.8229
▁Six	-10.8229
▁Food	-10.8233
▁Jun	-10.8239
▁orbit	-10.8241
▁Scotland	-10.8242
▁Hard	-10.8243
▁philosoph	-10.8244
▁subsequent	-10.8255
▁contained	-10.8256
▁Obamacare	-10.8258
▁Lewis	-10.827
▁Sir	-10.8275
▁calculate	-10.8282
▁Leader	-10.8282
▁illness	-10.8289
▁NBC	-10.8305
▁replacement	-10.8307
▁Premier	-10.8309
▁Fund	-10.8314
▁passion	-10.8319
▁Music	-10.8327
▁icon	-10.8329
▁twenty	-10.8336
amine	-10.8336
▁Field	-10.8336
author	-10.8337
▁representation	-10.8338
▁Arabia	-10.8348
▁incentive	-10.835
made	-10.835
▁consistently	-10.8352
▁Short	-10.8352
▁Navy	-10.8353
▁hook	-10.8354
▁retired	-10.8359
▁convicted	-10.8363
▁trillion	-10.8363
▁Kin	-10.8366
▁0.1	-10.8368
▁hitting	-10.8372
▁tune	-10.8376
▁principal	-10.8376
▁scope	-10.8379
▁Using	-10.8388
▁concert	-10.839
▁1997	-10.8397
▁updated	-10.8398
▁footage	-10.8399
lop	-10.84
▁featuring	-10.8403
▁rig	-10.8406
▁moon	-10.8412
▁cannabis	-10.8417
▁racism	-10.8417
▁advertise	-10.843
▁stupid	-10.843
▁dominant	-10.843
▁controller	-10.8445
▁coaches	-10.8449
▁Moore	-10.8453
▁independence	-10.8457
▁transgender	-10.8471
▁Turkish	-10.8484
▁authentic	-10.8484
▁rifle	-10.8484
▁brown	-10.8486
▁banned	-10.8488
▁End	-10.8491
▁Rap	-10.8493
▁DO	-10.8496
▁tag	-10.8497
▁activist	-10.8497
▁divorce	-10.8498
▁barrel	-10.8498
▁Libya	-10.8504
▁Illinois	-10.8512
▁virus	-10.8512
TM	-10.8512
▁delivery	-10.8513
▁slide	-10.8513
▁referring	-10.8515
▁awareness	-10.8519
▁Jean	-10.8522
▁concrete	-10.8525
▁ultimate	-10.8526
▁oppose	-10.8534
▁behaviour	-10.8539
▁manifest	-10.8539
▁Square	-10.8539
▁abandoned	-10.8546
▁convinced	-10.855
▁efficiency	-10.8553
▁shame	-10.8554
▁oppress	-10.8554
Oh	-10.856
▁gathering	-10.8561
▁100%	-10.8562
▁Moreover	-10.8569
▁Intel	-10.8578
▁personality	-10.8582
▁150	-10.8587
▁Therefore	-10.8594
▁absolute	-10.8594
▁Judge	-10.8596
http	-10.8597
trans	-10.8599
▁epi	-10.86
ffe	-10.8602
▁conventional	-10.8607
▁fantasy	-10.8608
▁militant	-10.8608
▁hint	-10.8612
▁electro	-10.8616
▁vaccine	-10.8622
▁dramatic	-10.8622
▁permission	-10.8625
▁diverse	-10.8627
▁Clark	-10.8628
▁rapid	-10.863
▁bihl	-10.8636
▁Moon	-10.8649
▁neighbour	-10.8649
▁Make	-10.8652
300	-10.8654
▁achievement	-10.8657
burn	-10.8658
▁Governor	-10.8663
▁registration	-10.8663
▁dad	-10.8663
▁Oct	-10.8667
▁NY	-10.8669
▁anybody	-10.8677
▁distributed	-10.8677
▁salary	-10.8677
▁Keep	-10.868
▁elder	-10.8685
▁ingredient	-10.8691
▁mortgage	-10.8691
mission	-10.8691
public	-10.8691
▁Lind	-10.8701
occupied	-10.8705
▁breed	-10.8707
▁differ	-10.8717
▁improving	-10.8719
▁appointed	-10.8719
▁entertainment	-10.8722
▁thrown	-10.8724
▁temporary	-10.8733
▁renewable	-10.8733
▁desert	-10.8733
▁Ross	-10.8737
assi	-10.8745
▁Alabama	-10.8747
▁curve	-10.8747
▁toxic	-10.8748
▁fatal	-10.8749
▁Care	-10.8754
▁Officer	-10.8754
▁communicate	-10.8761
▁Avenue	-10.8761
▁unclear	-10.8761
▁Victoria	-10.8761
▁Command	-10.8765
▁Mayor	-10.8766
▁upset	-10.8768
▁Professor	-10.8775
▁congressional	-10.8775
▁entitled	-10.8775
She	-10.8778
▁contributed	-10.8786
▁circuit	-10.8789
▁silence	-10.8789
▁recommended	-10.8792
▁divide	-10.8792
▁indicated	-10.8794
opera	-10.8799
▁mandate	-10.8801
▁conspiracy	-10.8803
▁ranked	-10.8805
[10]	-10.8806
▁kit	-10.8808
▁buck	-10.8808
▁presentation	-10.8812
▁drove	-10.8817
▁carrier	-10.8817
▁deposit	-10.882
▁Image	-10.882
▁copies	-10.8822
▁seal	-10.8823
▁trait	-10.8829
▁Vancouver	-10.8831
attle	-10.8833
hawk	-10.8833
▁retirement	-10.8833
▁Pra	-10.8834
▁fleet	-10.8838
▁gathered	-10.8838
lah	-10.8838
bru	-10.8843
▁Moscow	-10.8845
▁absence	-10.8845
rink	-10.8848
▁literature	-10.8859
▁ordinary	-10.8859
▁Kansas	-10.8859
▁Little	-10.8859
▁wealthy	-10.886
▁index	-10.8867
▁Egyptian	-10.8878
▁punishment	-10.888
▁Mountain	-10.8887
▁Jason	-10.8892
▁neck	-10.8897
▁tale	-10.8898
▁musical	-10.8899
▁Zealand	-10.8901
▁perception	-10.8901
▁scream	-10.8902
▁subscribe	-10.8903
minute	-10.8916
▁employed	-10.8928
▁garden	-10.893
▁Dutch	-10.893
izer	-10.894
▁advise	-10.8943
PO	-10.8943
▁discipline	-10.8944
▁analyze	-10.8944
▁Dallas	-10.8944
▁shelter	-10.8945
▁genre	-10.8946
▁criticized	-10.8951
▁alert	-10.8952
▁Later	-10.8956
▁qualify	-10.8958
start	-10.8959
[8]	-10.8961
▁Master	-10.8961
▁1994	-10.8966
▁fallen	-10.8968
▁grab	-10.8974
lton	-10.8985
▁bacteria	-10.8987
Qaeda	-10.8987
▁jet	-10.8998
▁theater	-10.9
▁lunch	-10.9005
▁whereas	-10.9009
▁PM	-10.9012
held	-10.9015
▁interpretation	-10.9016
▁priest	-10.9016
▁Allen	-10.9022
▁formula	-10.9025
▁combine	-10.9027
▁assumed	-10.9029
▁diversity	-10.903
▁legacy	-10.9031
▁Record	-10.9036
▁cease	-10.9036
▁studied	-10.9044
▁silver	-10.9044
▁punch	-10.9045
▁Bryan	-10.9048
▁Marvel	-10.905
▁meaningful	-10.905
▁Bible	-10.9052
▁lucky	-10.9054
▁Community	-10.9059
▁centuries	-10.9059
▁impression	-10.906
▁III	-10.9066
▁encouraged	-10.9066
▁classified	-10.9069
▁striking	-10.9073
▁invasion	-10.9073
▁Centre	-10.9074
▁Mormon	-10.9077
▁actively	-10.9078
▁wider	-10.9084
▁dump	-10.9086
▁Greece	-10.9088
▁judgment	-10.9088
▁Ever	-10.9088
▁ultra	-10.9088
▁pipeline	-10.9089
▁acquired	-10.9091
▁View	-10.9091
:00	-10.9091
▁divided	-10.9092
ault	-10.9095
▁boom	-10.9102
▁remarkable	-10.9102
▁venture	-10.9102
[9]	-10.9104
▁pour	-10.9106
▁Sure	-10.9112
▁capitalism	-10.9116
▁arrangement	-10.9117
▁survival	-10.9117
▁arguing	-10.9117
▁joy	-10.9118
▁demonstrated	-10.9122
▁Thi	-10.9124
▁echo	-10.9125
self	-10.9129
▁NATO	-10.9132
▁Know	-10.9142
Star	-10.9151
▁Rome	-10.9157
▁Harvard	-10.916
▁Hawaii	-10.916
▁mask	-10.9161
eff	-10.9162
udge	-10.9163
▁handling	-10.9164
▁HD	-10.9172
▁Lib	-10.9172
▁flip	-10.9173
▁frequency	-10.9175
▁rumor	-10.9175
▁ignored	-10.918
▁Champion	-10.9188
▁Earlier	-10.9189
step	-10.9191
▁startup	-10.9192
▁$8	-10.9196
▁demon	-10.9197
fight	-10.9207
▁OK	-10.9212
▁controversy	-10.9219
▁Atlanta	-10.9219
▁smell	-10.9219
▁friendly	-10.9225
▁accessible	-10.9226
zar	-10.9233
▁VI	-10.9234
▁Plus	-10.9236
max	-10.9239
▁announce	-10.9239
▁settled	-10.9241
▁Bol	-10.9245
▁Justin	-10.9245
osis	-10.9246
▁reliable	-10.9248
▁abroad	-10.9248
▁destination	-10.9263
▁superior	-10.9263
operative	-10.9265
anti	-10.9265
▁gig	-10.927
article	-10.9277
▁innocent	-10.9278
kov	-10.9282
▁poet	-10.9295
▁Action	-10.9302
▁conclude	-10.9305
after	-10.9306
▁shout	-10.9306
note	-10.9321
▁Pur	-10.9323
▁whenever	-10.9323
▁surgery	-10.9327
▁fate	-10.9328
alia	-10.9331
▁breach	-10.9337
▁manual	-10.9345
▁Bridge	-10.9346
▁Beijing	-10.9351
▁blast	-10.9354
▁Vice	-10.9365
▁span	-10.9366
▁economist	-10.9366
▁Ministry	-10.9366
▁Bureau	-10.9366
embl	-10.9378
from	-10.9379
▁Division	-10.9383
▁Santa	-10.9384
▁distract	-10.9389
surge	-10.9391
▁Line	-10.9391
▁closing	-10.9396
▁factory	-10.9399
▁ramp	-10.94
▁1995	-10.9408
human	-10.941
▁ruin	-10.941
▁assassin	-10.9411
▁deliberate	-10.9411
▁publishing	-10.9412
▁Tur	-10.9415
▁Cuba	-10.9416
▁visitors	-10.9428
Ho	-10.943
national	-10.9445
▁precisely	-10.9461
▁Trust	-10.9465
▁mock	-10.9468
▁popularity	-10.9469
pack	-10.9469
▁comprehensive	-10.9471
▁obligation	-10.9471
▁phenomenon	-10.9471
▁Diego	-10.9473
▁healthcare	-10.9473
▁therapy	-10.9473
▁calm	-10.9474
▁firing	-10.9475
error	-10.9477
▁grave	-10.948
▁1992	-10.9493
▁rough	-10.9494
▁Player	-10.9501
▁continua	-10.9501
▁comedy	-10.9505
▁prisoners	-10.9507
▁broader	-10.9515
▁presidency	-10.9516
▁referendum	-10.9516
▁clothes	-10.9517
▁membership	-10.9523
One	-10.9529
▁Manchester	-10.9531
▁kitchen	-10.9531
▁utility	-10.9531
▁drew	-10.9531
▁Freedom	-10.9532
▁Xbox	-10.9534
erie	-10.9535
▁buff	-10.9542
▁viewers	-10.9546
▁participation	-10.9546
▁bubble	-10.9546
▁submit	-10.955
▁acknowledged	-10.9554
▁Cam	-10.9554
▁luck	-10.956
▁demonstration	-10.9562
▁tissue	-10.9562
▁Patrick	-10.9563
▁suppress	-10.9563
▁architecture	-10.9563
▁Graham	-10.9565
▁usage	-10.9566
▁suspended	-10.957
▁favour	-10.9575
▁strategies	-10.9577
▁Silver	-10.9577
▁Medical	-10.9577
▁counterpart	-10.9579
respons	-10.9579
▁tries	-10.9588
▁Information	-10.9592
▁venue	-10.9592
▁Former	-10.9593
▁underlying	-10.9596
psy	-10.9596
▁museum	-10.9607
▁Austin	-10.9607
▁amid	-10.9609
▁container	-10.9609
Some	-10.9613
▁Sweden	-10.9622
▁excuse	-10.9623
▁strain	-10.9628
▁employ	-10.9635
▁industries	-10.9638
▁inspiration	-10.9638
▁Mir	-10.9639
▁Beck	-10.964
▁overcome	-10.9644
▁Ruby	-10.9645
▁lying	-10.9649
▁math	-10.9652
through	-10.9652
▁Pokémon	-10.9653
▁eager	-10.9653
▁inequality	-10.9653
▁API	-10.9654
▁yellow	-10.9654
▁remarks	-10.9654
▁Kra	-10.966
▁align	-10.9661
▁tribe	-10.9663
jan	-10.9684
▁coup	-10.9685
change	-10.9688
conf	-10.9688
▁absorb	-10.9699
▁prayer	-10.9705
▁Price	-10.9706
▁continuous	-10.9714
4,000	-10.9719
▁Final	-10.9722
▁chicken	-10.973
▁scientist	-10.9736
▁requirement	-10.9736
▁pill	-10.9741
▁1950	-10.975
▁regulatory	-10.9752
▁Saint	-10.9757
▁McG	-10.9757
▁equality	-10.976
▁Oklahoma	-10.9761
▁supplies	-10.9761
▁var	-10.977
iya	-10.9771
▁Bear	-10.9775
▁capabilities	-10.9776
▁introduction	-10.9776
▁(“	-10.9778
▁Simon	-10.9784
▁Philippine	-10.9792
▁Buck	-10.9793
▁password	-10.9793
▁undermine	-10.9795
▁architect	-10.9805
▁royal	-10.9808
▁minimal	-10.9808
▁Tea	-10.9816
▁Environment	-10.9823
▁consensus	-10.9823
▁thrill	-10.9823
▁letting	-10.9825
▁#1	-10.9828
▁affordable	-10.9834
▁Revolution	-10.9838
▁eligible	-10.9838
▁Kennedy	-10.9838
▁sovereign	-10.9838
▁tube	-10.9842
▁arrival	-10.9854
▁ridiculous	-10.9854
▁cheer	-10.9854
▁secondary	-10.9854
▁spoken	-10.9864
▁singer	-10.9867
▁evaluate	-10.9869
▁Cook	-10.9871
bury	-10.9873
▁frequent	-10.9874
▁Dave	-10.9875
watch	-10.9875
▁functional	-10.9875
▁legislative	-10.9901
▁thorough	-10.9901
▁helpful	-10.9905
▁Golden	-10.9908
▁Intelligence	-10.9916
▁regulate	-10.9918
▁relation	-10.9922
▁artificial	-10.9932
▁delegate	-10.9932
▁Berlin	-10.9933
▁Gulf	-10.9938
▁Radio	-10.9942
▁fool	-10.9948
▁Matthew	-10.9948
▁requiring	-10.9948
▁Samsung	-10.9948
▁disclose	-10.9948
▁crush	-10.9951
▁prediction	-10.9952
Qu	-10.9953
▁Grant	-10.9961
▁setup	-10.9963
▁resident	-10.9963
▁chronic	-10.9964
ographic	-10.9971
▁grip	-10.9975
▁Cameron	-10.998
▁Reagan	-10.998
▁overseas	-10.998
▁melt	-10.9981
▁Control	-10.9991
market	-10.9994
▁Anthony	-10.9995
▁Galaxy	-10.9995
▁perceived	-10.9995
▁fulfill	-10.9995
▁IBM	-10.9996
▁pretend	-10.9998
▁consent	-10.9999
These	-10.9999
text	-11.0008
▁physician	-11.0011
With	-11.0014
▁clinical	-11.0026
▁anticipate	-11.0027
▁Furthermore	-11.0027
▁UFC	-11.0039
▁Atlantic	-11.0043
▁Jerusalem	-11.0043
▁ideology	-11.0043
▁Utah	-11.0043
▁Maryland	-11.0045
▁physics	-11.0047
▁diploma	-11.0055
▁constitute	-11.0059
▁headquarters	-11.0059
▁damn	-11.006
▁categories	-11.0065
▁teenager	-11.0066
▁theories	-11.0068
▁List	-11.0073
▁Trade	-11.0077
▁gut	-11.0081
▁dust	-11.0084
▁tourist	-11.009
▁distinguish	-11.0091
▁propaganda	-11.0091
▁beauty	-11.0091
▁MLS	-11.0091
▁replica	-11.0095
▁Everyone	-11.0096
▁Sound	-11.0098
what	-11.0101
▁supplement	-11.0106
▁brilliant	-11.0107
▁harsh	-11.0107
▁Dam	-11.0113
▁Ontario	-11.0123
▁occupation	-11.0123
▁tremendous	-11.0123
▁threw	-11.0123
▁competing	-11.0123
▁preference	-11.0128
▁appointment	-11.0128
▁Technology	-11.0139
▁extraordinary	-11.0139
▁ESPN	-11.0139
▁essay	-11.0139
▁Review	-11.015
▁rookie	-11.0155
▁tunnel	-11.0171
▁Studio	-11.0171
▁Beach	-11.0174
▁stolen	-11.0187
▁Chan	-11.0193
▁dying	-11.0194
▁Check	-11.0197
▁Fight	-11.0201
▁accusation	-11.0203
▁Alexander	-11.0203
▁relax	-11.0203
▁iOS	-11.0206
▁shopping	-11.0206
eptic	-11.022
▁Think	-11.022
election	-11.0223
▁peaceful	-11.0227
▁emphasis	-11.0236
▁preparing	-11.0236
▁gross	-11.0236
▁2020	-11.0238
▁hire	-11.024
20,000	-11.0247
▁psycho	-11.0252
▁descend	-11.0252
▁Captain	-11.0254
▁Kong	-11.026
▁Much	-11.0264
▁anniversary	-11.0268
▁protocol	-11.0268
▁bulk	-11.0269
▁blend	-11.0269
white	-11.0273
screen	-11.0275
▁2019	-11.0276
▁fabric	-11.0285
▁Engine	-11.0285
▁continent	-11.0285
▁spectrum	-11.0285
▁Run	-11.0285
▁intercept	-11.0289
▁Wolf	-11.0289
▁documentary	-11.0296
▁lineup	-11.0297
▁unfair	-11.0301
▁historian	-11.0301
▁advisor	-11.0301
third	-11.0307
▁stamp	-11.0314
▁shield	-11.0317
▁alliance	-11.0318
▁Front	-11.0319
▁bitter	-11.032
▁Camp	-11.033
think	-11.0334
▁withdraw	-11.0335
▁deadline	-11.0343
▁adoption	-11.0345
▁universities	-11.035
▁smoking	-11.035
▁Vegas	-11.035
▁educate	-11.035
▁subsequently	-11.0351
▁biological	-11.0352
cli	-11.0366
▁musician	-11.0372
▁Family	-11.0383
▁revelation	-11.0383
about	-11.0386
▁Hong	-11.0386
▁lifetime	-11.0387
▁Cooper	-11.0398
▁quantum	-11.0399
▁abilities	-11.0399
▁Bruce	-11.0405
▁sorry	-11.0416
▁Anderson	-11.0433
▁Steel	-11.0437
▁1993	-11.0441
▁Common	-11.0447
physic	-11.0448
▁interior	-11.0449
▁Tower	-11.046
▁Off	-11.0469
▁diplomatic	-11.0469
▁shipping	-11.0471
▁pension	-11.0473
▁9/11	-11.0482
▁Cleveland	-11.0482
▁pollution	-11.0482
▁indication	-11.0483
▁defendant	-11.0485
▁childhood	-11.0485
▁submitted	-11.0485
▁suck	-11.0495
▁Nintendo	-11.0499
▁emerging	-11.0499
▁Additionally	-11.0499
▁timing	-11.0501
▁airline	-11.0504
stream	-11.0505
taking	-11.0511
▁Capitol	-11.0515
▁illustrate	-11.0515
▁unprecedented	-11.0515
▁Tesla	-11.0516
▁convince	-11.0519
0.5	-11.0527
▁Modi	-11.0531
▁contradict	-11.0532
▁Nixon	-11.0532
▁Death	-11.0533
▁10,000	-11.0533
▁Ball	-11.0544
trust	-11.0545
▁collaboration	-11.0549
▁laptop	-11.0549
▁preparation	-11.0549
▁municipal	-11.0566
▁iPad	-11.0566
▁psychological	-11.0566
▁soccer	-11.0566
▁clinic	-11.0567
▁drum	-11.057
▁Lincoln	-11.0582
▁horizon	-11.0582
▁Dragon	-11.0582
▁GDP	-11.0583
▁Manning	-11.0595
▁Jane	-11.0596
▁dialogue	-11.0599
▁radiation	-11.0599
▁assigned	-11.0599
▁firearm	-11.0602
▁discount	-11.0607
▁mood	-11.0611
Mobile	-11.062
▁Town	-11.0623
▁stepped	-11.0626
course	-11.0629
▁entrance	-11.0633
[11]	-11.0635
▁Knight	-11.0646
▁Doctor	-11.0647
▁Capital	-11.065
▁guidelines	-11.065
still	-11.0658
income	-11.0662
▁gather	-11.0666
▁adequate	-11.0667
▁promising	-11.0667
▁1989	-11.0676
▁Magic	-11.0677
▁anonymous	-11.0684
▁ecosystem	-11.0684
▁exhaust	-11.0684
▁explosion	-11.0684
▁influential	-11.0684
▁stability	-11.0684
▁dramatically	-11.0686
▁Baker	-11.0691
▁stance	-11.0694
▁Studies	-11.0701
last	-11.0701
▁complexity	-11.0702
▁racing	-11.0706
▁abandon	-11.0709
century	-11.071
▁Brew	-11.0723
▁Gun	-11.0723
▁$100	-11.0724
will	-11.073
▁departure	-11.0735
▁unexpected	-11.0735
▁halt	-11.0747
▁wedding	-11.0753
▁breast	-11.0754
▁1991	-11.0759
▁organic	-11.0768
present	-11.0768
▁Have	-11.077
▁exclude	-11.0771
▁cult	-11.0778
▁Ukrainian	-11.0786
▁Alaska	-11.0786
▁trauma	-11.0787
▁shake	-11.0789
▁endless	-11.0799
▁entertain	-11.0801
Obviously	-11.0803
▁Standard	-11.0803
▁promoting	-11.0803
▁considerable	-11.0804
▁coincide	-11.0804
▁Motor	-11.0804
▁Metro	-11.0818
▁spokesperson	-11.082
▁forecast	-11.0821
▁justify	-11.0821
▁cooperation	-11.0837
▁Operation	-11.0838
▁Bren	-11.0838
▁Kill	-11.0842
▁Palm	-11.0846
▁managing	-11.0847
▁Carter	-11.0848
▁filing	-11.0848
▁NOT	-11.0855
▁Pentagon	-11.0855
▁Museum	-11.0855
▁sweep	-11.0855
▁Dream	-11.0855
▁inherit	-11.0855
▁Baltimore	-11.0872
▁emphasize	-11.0872
▁Michel	-11.0873
▁intend	-11.0873
▁keyboard	-11.0878
3.5	-11.0878
▁measurement	-11.0882
▁pig	-11.0884
▁configuration	-11.0889
▁frustration	-11.0889
▁motivation	-11.0889
▁Scar	-11.0899
▁acceptable	-11.09
▁contemporary	-11.0907
▁tomorrow	-11.0907
brow	-11.0913
▁Point	-11.0913
▁installation	-11.0918
▁Beat	-11.0921
▁acquisition	-11.0924
▁athletic	-11.0924
▁animation	-11.0925
▁Hospital	-11.0941
▁negotiate	-11.0941
▁Alliance	-11.0941
▁Ocean	-11.0942
▁chamber	-11.0944
▁marginal	-11.0956
▁trap	-11.0958
ccompanied	-11.0959
▁inherent	-11.0959
▁touchdown	-11.0962
▁regulator	-11.0969
▁integration	-11.0976
▁investigating	-11.0976
▁Consider	-11.0976
▁cream	-11.0977
▁Step	-11.0981
▁pride	-11.0982
▁Khan	-11.0985
quality	-11.0985
▁Comm	-11.0987
piece	-11.0988
▁engagement	-11.0988
▁chest	-11.099
▁cognitive	-11.0994
▁bathroom	-11.0994
▁confess	-11.0994
People	-11.1006
figure	-11.1007
▁sentiment	-11.1011
child	-11.1012
▁memories	-11.1013
▁Football	-11.1029
▁reinforce	-11.1029
▁everyday	-11.1032
▁Howard	-11.1033
▁lake	-11.1034
▁bold	-11.1043
▁Stadium	-11.1046
▁inches	-11.1046
▁Heart	-11.1058
▁gym	-11.1065
▁analog	-11.1073
▁Change	-11.1074
▁Harper	-11.1074
▁occasionally	-11.1077
Every	-11.1077
▁dimension	-11.1079
▁ceremony	-11.1082
▁burst	-11.1082
▁cheese	-11.1084
▁infant	-11.1085
▁Warren	-11.1091
▁corrupt	-11.1093
▁slight	-11.1098
▁pipe	-11.1098
▁Affairs	-11.1099
▁Reserve	-11.1099
▁variant	-11.1099
▁Design	-11.11
[12]	-11.1101
▁harassment	-11.1102
▁tab	-11.1104
▁Member	-11.1106
▁desk	-11.1111
▁Kris	-11.1114
normal	-11.1114
▁enterprise	-11.1117
▁hockey	-11.1117
▁telephone	-11.1117
▁resort	-11.1117
▁CBS	-11.1118
▁preferred	-11.1121
▁logo	-11.1128
▁History	-11.1135
▁coordinate	-11.1136
▁Medicaid	-11.1152
▁inevitable	-11.1152
▁maintenance	-11.1152
▁removal	-11.1152
▁Brooklyn	-11.1152
▁technological	-11.117
▁Brexit	-11.117
▁liberty	-11.117
▁Brook	-11.1174
▁oversee	-11.1179
▁realistic	-11.118
▁certificate	-11.1188
▁occasional	-11.1189
▁ministry	-11.1206
▁vessel	-11.1206
▁Delhi	-11.1209
▁Elizabeth	-11.1224
▁statistical	-11.1224
▁Convention	-11.1224
▁analyse	-11.1224
▁donations	-11.123
▁okay	-11.1242
▁hopefully	-11.1247
value	-11.125
▁vegetable	-11.126
▁engaging	-11.126
fill	-11.126
week	-11.1265
▁Die	-11.1266
ALL	-11.1276
▁withdrawal	-11.1278
▁Kentucky	-11.1278
▁contrary	-11.1278
▁Wright	-11.128
▁insult	-11.1283
▁Sept	-11.1288
6,000	-11.1288
▁Blake	-11.1294
▁Jonathan	-11.1296
▁Denver	-11.1296
▁Morris	-11.1302
▁lifestyle	-11.1303
▁sudden	-11.1305
morph	-11.1313
▁concentrate	-11.1314
▁Dick	-11.1326
▁Yemen	-11.1332
▁gameplay	-11.1334
▁Left	-11.1337
▁explosive	-11.135
▁Until	-11.135
▁citing	-11.1351
▁Range	-11.1376
▁worship	-11.1386
▁blank	-11.1386
▁curious	-11.1386
▁simultaneously	-11.1393
▁sustainable	-11.1398
▁Drive	-11.14
▁Nik	-11.1403
▁deemed	-11.1405
▁Authority	-11.1409
▁Jose	-11.1411
▁Assembly	-11.1423
▁Netflix	-11.1423
▁Anna	-11.1439
▁Montreal	-11.1441
▁celebration	-11.1441
▁vow	-11.1443
▁Unit	-11.1459
▁bureau	-11.1459
▁cabinet	-11.1459
▁prosecution	-11.1459
▁outlets	-11.1463
check	-11.1465
▁fame	-11.1474
▁jurisdiction	-11.1478
▁activate	-11.1478
▁clash	-11.1481
mount	-11.1493
▁Singapore	-11.1496
▁CPU	-11.1496
▁mutual	-11.1498
▁scrap	-11.1501
▁boast	-11.1515
ologie	-11.1518
▁painful	-11.1518
▁underground	-11.1521
▁Oakland	-11.1533
▁costume	-11.1536
▁weakness	-11.1542
▁Java	-11.1543
▁Yang	-11.1545
▁stating	-11.1547
zone	-11.1551
▁Season	-11.1561
▁Phoenix	-11.157
▁electoral	-11.157
▁tobacco	-11.157
tributi	-11.1572
iki	-11.1587
writer	-11.1588
▁Afghan	-11.1588
▁Chelsea	-11.1588
▁scratch	-11.1588
▁pleasure	-11.1589
▁attractive	-11.1589
▁Josh	-11.1597
▁circum	-11.1607
▁utilize	-11.1607
▁evident	-11.1607
▁speculation	-11.1608
▁Remember	-11.1611
▁Scottish	-11.1614
▁relate	-11.1617
▁Speaking	-11.1626
▁Tennessee	-11.1626
▁encouraging	-11.1626
▁refine	-11.163
▁modest	-11.164
1.2	-11.1641
▁jihad	-11.1644
▁profound	-11.165
▁intelligent	-11.1663
▁junior	-11.1663
▁HIV	-11.1663
drop	-11.1666
▁Portland	-11.1667
member	-11.1679
▁nervous	-11.1682
▁charging	-11.1682
▁isolated	-11.1682
▁steam	-11.1682
▁bump	-11.1688
▁Bond	-11.169
▁leap	-11.1693
▁Executive	-11.1701
▁silent	-11.1701
▁glad	-11.1701
▁delete	-11.1732
▁compensation	-11.1738
▁lecture	-11.1738
▁merit	-11.174
▁poison	-11.1742
▁sack	-11.1743
8,000	-11.1747
▁Sydney	-11.1757
▁describing	-11.1757
▁disappointed	-11.1757
▁modified	-11.176
▁integrity	-11.1776
▁satisfy	-11.1776
[13]	-11.1795
▁accuracy	-11.1814
▁extremist	-11.1814
▁prototype	-11.1814
▁Missouri	-11.1814
▁metaphor	-11.1814
▁Corporation	-11.1814
▁Protection	-11.1814
▁sweat	-11.1815
▁subtle	-11.1816
▁Spec	-11.1817
▁Christie	-11.182
ENT	-11.1823
fusion	-11.1827
▁Support	-11.1833
▁Eagle	-11.1833
▁Duke	-11.1835
▁seized	-11.1836
▁orange	-11.1839
▁slice	-11.1841
▁sake	-11.1848
▁coordinator	-11.1852
TION	-11.1859
▁awful	-11.1865
▁Manhattan	-11.1871
▁composition	-11.1874
▁confusion	-11.1874
▁50%	-11.1888
▁automatic	-11.189
▁pray	-11.1901
▁buried	-11.1909
▁opposing	-11.1909
▁Management	-11.1909
|	-11.1912
▁ranging	-11.1915
▁Poland	-11.1917
▁custody	-11.1928
▁entrepreneur	-11.1928
profit	-11.193
▁epic	-11.1945
▁Orthodox	-11.1948
▁Representative	-11.1948
▁empire	-11.1948
▁Everything	-11.1948
▁theoretical	-11.1948
[14]	-11.1949
while	-11.195
▁labour	-11.197
▁Section	-11.1977
▁exploration	-11.1986
▁Medicine	-11.1986
▁Stanford	-11.1986
▁immune	-11.1986
▁releasing	-11.1986
▁vendor	-11.1986
▁replied	-11.1986
▁0.2	-11.1991
▁spill	-11.2003
▁puzzle	-11.2006
▁recession	-11.2006
ocracy	-11.2006
900	-11.201
▁functionality	-11.2012
▁declare	-11.2017
ATE	-11.202
▁qualified	-11.2025
▁Louisiana	-11.2025
▁Summer	-11.2025
▁teeth	-11.2025
▁Charlie	-11.2026
▁fraction	-11.2026
▁sauce	-11.2026
million	-11.2029
▁Local	-11.2031
keeper	-11.2033
▁Thompson	-11.2044
▁Treasury	-11.2044
▁choosing	-11.2044
▁earthquake	-11.2044
▁entity	-11.2046
▁empower	-11.2047
▁hub	-11.2052
▁insert	-11.2054
▁Author	-11.2059
▁carries	-11.206
▁guidance	-11.2064
▁legislature	-11.2064
▁mysterious	-11.2064
▁charity	-11.2064
▁Jacob	-11.2064
▁Film	-11.2065
▁nurse	-11.2066
▁Order	-11.2069
▁Patriot	-11.2083
▁Sheriff	-11.2083
▁monument	-11.2083
▁duties	-11.2087
▁pile	-11.2096
▁invite	-11.2098
▁ought	-11.2105
▁dropping	-11.2108
design	-11.212
▁Independent	-11.2122
▁innovative	-11.2122
▁feminist	-11.2122
[15]	-11.213
▁cinema	-11.2145
▁panic	-11.2147
▁Total	-11.2152
▁faculty	-11.2162
▁luxury	-11.2162
▁Gordon	-11.2162
▁desktop	-11.2162
▁Level	-11.217
logist	-11.2179
▁lone	-11.218
▁abstract	-11.2181
▁solely	-11.2184
▁attach	-11.2187
▁soldier	-11.2191
▁verify	-11.2192
▁administrative	-11.2201
▁suspension	-11.2201
▁conversion	-11.2201
▁Fischer	-11.2201
▁journalism	-11.2206
▁doctrine	-11.2221
▁transparency	-11.2221
▁Sarah	-11.2221
▁Ultimate	-11.2241
▁caution	-11.2241
cycling	-11.2241
▁translation	-11.2242
▁flee	-11.2245
government	-11.2247
school	-11.2247
7,000	-11.2257
▁Between	-11.226
▁facilitate	-11.226
▁0.9	-11.227
▁knife	-11.228
▁subsidies	-11.228
▁cluster	-11.228
▁secular	-11.228
▁Things	-11.2281
▁mystery	-11.2281
▁polar	-11.2293
▁twin	-11.2294
▁countless	-11.2295
▁accord	-11.23
▁Orlando	-11.23
▁removing	-11.23
▁constitution	-11.232
▁regret	-11.232
▁drunk	-11.232
▁residential	-11.2323
▁dating	-11.2336
▁Election	-11.2343
▁Entertainment	-11.236
▁Netherlands	-11.236
▁Nevada	-11.236
▁Would	-11.236
▁Natural	-11.2361
▁Morgan	-11.2364
▁revolutionary	-11.2367
▁Father	-11.2371
▁robust	-11.238
▁transferred	-11.2386
▁Student	-11.2401
▁identical	-11.2401
▁Warner	-11.2404
Why	-11.2409
▁inventor	-11.2415
▁Quebec	-11.2421
stead	-11.2433
▁politician	-11.2435
1,000	-11.2435
▁absurd	-11.2441
▁recognise	-11.2441
▁layout	-11.2447
▁socio	-11.2456
▁scout	-11.2459
▁rebuild	-11.2461
▁radar	-11.2461
▁entities	-11.2462
▁sink	-11.2468
biotic	-11.2478
▁confused	-11.2481
▁cartoon	-11.2482
▁Number	-11.2483
▁nonprofit	-11.2483
▁tendency	-11.2484
▁visa	-11.2487
▁chaos	-11.249
specific	-11.2498
▁dictator	-11.2502
▁Reddit	-11.2502
▁hiring	-11.2506
▁systematic	-11.252
▁Children	-11.2522
▁Roosevelt	-11.2522
▁obstacle	-11.2522
▁Access	-11.2522
▁wisdom	-11.2522
▁Whit	-11.2525
1.1	-11.2525
▁jazz	-11.2543
▁Spirit	-11.2544
▁Nothing	-11.2544
▁summit	-11.2545
▁transmit	-11.2547
▁Wales	-11.2563
▁Organization	-11.2563
▁forgotten	-11.2563
▁threshold	-11.2563
▁disclosure	-11.2583
▁pregnant	-11.2583
▁homosexual	-11.2583
▁premise	-11.2584
▁fluid	-11.2593
▁consecutive	-11.2604
▁migration	-11.2604
▁resemble	-11.2604
compatible	-11.2604
▁Third	-11.2605
▁Further	-11.2624
▁Gandhi	-11.2625
[16]	-11.2626
▁Place	-11.2637
▁precise	-11.2639
▁donors	-11.2645
▁detention	-11.2645
▁ghost	-11.2645
▁equation	-11.2645
▁steady	-11.2645
▁inquiry	-11.2646
▁Guard	-11.2656
▁owe	-11.2656
▁composed	-11.2666
▁conceal	-11.2666
▁screw	-11.2666
▁birthday	-11.2669
▁iconic	-11.2677
▁administrator	-11.2687
▁scrutiny	-11.2687
▁cricket	-11.2687
▁Philip	-11.269
▁acquire	-11.2702
▁maxim	-11.2704
▁residence	-11.2707
▁clue	-11.2709
▁addiction	-11.2716
▁mice	-11.2721
▁Francis	-11.2725
▁Venezuela	-11.2728
▁predecessor	-11.2728
▁Swedish	-11.2749
▁survivor	-11.2749
▁Coalition	-11.2749
▁Titan	-11.2753
▁1984	-11.2761
▁agriculture	-11.277
▁bizarre	-11.277
▁ambition	-11.277
▁favourite	-11.2772
▁sword	-11.2777
oriented	-11.279
▁ceiling	-11.2791
▁globe	-11.2791
▁greenhouse	-11.2792
▁comprise	-11.28
security	-11.2803
▁Communication	-11.2812
▁helicopter	-11.2812
▁riot	-11.2812
natural	-11.2824
▁ideological	-11.2833
▁Source	-11.2833
▁uncertainty	-11.2836
▁resume	-11.2837
frame	-11.2839
▁drain	-11.284
▁demographic	-11.2854
▁compelling	-11.2854
▁Channel	-11.2854
▁Islamist	-11.2865
++	-11.2875
▁suspicion	-11.2875
▁stir	-11.2876
▁editorial	-11.2881
▁applies	-11.2882
▁Arkansas	-11.2896
▁calculation	-11.2896
[18]	-11.2898
VER	-11.2906
▁marry	-11.2912
▁Link	-11.2917
▁elephant	-11.2917
▁instinct	-11.2917
▁sophisticated	-11.2917
▁devoted	-11.2917
cott	-11.2921
complete	-11.293
▁contributor	-11.2938
▁possibilities	-11.2938
▁Orleans	-11.2938
▁Tokyo	-11.2938
▁Modern	-11.2939
▁Metal	-11.2939
▁Medicare	-11.296
▁declaration	-11.296
▁neglect	-11.296
▁Type	-11.296
▁{\	-11.2964
▁zoo	-11.2966
▁fascinating	-11.2981
▁Murray	-11.2981
▁impressed	-11.2981
▁cruel	-11.2981
▁Overall	-11.2985
▁capability	-11.2989
▁Secret	-11.3
▁Cardinal	-11.3002
▁Eventually	-11.3002
▁structural	-11.3002
▁hypo	-11.3003
▁Ottawa	-11.3024
▁Speaker	-11.3024
▁ambitious	-11.3024
▁tragedy	-11.3024
▁Girl	-11.3026
▁beneath	-11.3045
▁Legend	-11.3045
▁Manager	-11.3045
▁tragic	-11.3047
▁Thor	-11.3048
▁adjustment	-11.3056
▁consultant	-11.3061
30,000	-11.3064
▁apologize	-11.3067
▁manipulate	-11.3067
▁IRS	-11.3069
▁kiss	-11.307
▁heaven	-11.3089
firm	-11.31
current	-11.3101
▁priv	-11.3106
▁replacing	-11.311
▁Snowden	-11.311
▁equipped	-11.311
▁fortune	-11.3111
▁Drug	-11.3141
▁expose	-11.3153
▁Hamilton	-11.3153
▁Garden	-11.316
▁slavery	-11.316
▁Pittsburgh	-11.3175
▁altogether	-11.3175
▁nationwide	-11.3177
▁Giants	-11.3179
▁attendance	-11.3187
▁Multi	-11.3193
▁exploring	-11.3197
▁bargain	-11.3197
▁medication	-11.3197
▁gentle	-11.3197
▁hiding	-11.3202
▁experiencing	-11.3219
▁phenomena	-11.3219
▁courage	-11.3219
▁Hitler	-11.3219
▁Peace	-11.3225
▁passionate	-11.3225
▁Kickstarter	-11.324
▁helmet	-11.324
▁Nelson	-11.3241
▁asylum	-11.3241
▁mixture	-11.3244
▁limitations	-11.3248
▁hike	-11.3252
▁Bab	-11.3257
▁Official	-11.3262
▁Oscar	-11.3263
group	-11.3265
▁PlayStation	-11.3284
▁recipient	-11.3284
▁Break	-11.3285
interest	-11.3289
▁keen	-11.329
**	-11.3296
▁animated	-11.3307
▁permitted	-11.3313
control	-11.3322
1.4	-11.3325
▁Dakota	-11.3328
▁interrupt	-11.3328
▁Austria	-11.3328
▁duration	-11.3337
▁mouse	-11.334
▁Financial	-11.3351
▁Mississippi	-11.3351
▁happiness	-11.3351
▁uncomfortable	-11.3351
▁Ronald	-11.3352
second	-11.3361
▁convenient	-11.3373
▁criteria	-11.3373
▁girlfriend	-11.3373
▁Universe	-11.3373
twitter	-11.3373
▁Jerry	-11.3382
▁Kurdish	-11.3395
▁libraries	-11.3395
▁convey	-11.3396
▁vertical	-11.3397
▁Hawk	-11.3401
scope	-11.341
▁persuade	-11.3417
▁assembly	-11.3417
▁diminish	-11.3417
▁pixel	-11.3417
▁villain	-11.3417
▁Credit	-11.3418
▁notorious	-11.3418
▁crown	-11.3422
1.6	-11.3425
develop	-11.3436
▁sneak	-11.344
▁partially	-11.344
▁wireless	-11.3444
▁singing	-11.3454
▁Festival	-11.3462
▁Liverpool	-11.3462
▁rotation	-11.3462
match	-11.3468
▁significance	-11.3484
▁surrender	-11.3484
winning	-11.3502
▁Express	-11.3504
▁agricultural	-11.3507
▁examination	-11.3507
▁horrible	-11.3507
▁derived	-11.3507
▁leverage	-11.3507
▁Robinson	-11.3507
▁0.3	-11.3507
minded	-11.3516
▁Circuit	-11.3529
▁flexible	-11.3529
▁NCAA	-11.3529
[17]	-11.3531
▁yell	-11.3531
▁pepper	-11.3533
▁Against	-11.3534
▁Christopher	-11.3552
▁frustrated	-11.3552
watt	-11.3566
▁Hampshire	-11.3575
▁McDonald	-11.3575
appropriate	-11.3595
▁advocacy	-11.3597
▁oxygen	-11.3597
▁patrol	-11.3597
rrell	-11.36
▁restrain	-11.3603
0.1	-11.3634
alpha	-11.3641
▁atheist	-11.3642
▁Cloud	-11.3643
▁respondents	-11.3644
▁Prior	-11.3644
▁Exchange	-11.3644
▁minorities	-11.3647
▁prescription	-11.3666
▁spokeswoman	-11.3666
▁Scientology	-11.3688
▁ambassador	-11.3688
▁monetary	-11.3688
▁Craig	-11.3689
▁propose	-11.3691
▁Weiss	-11.3699
credit	-11.37
easing	-11.3705
▁Currently	-11.3711
▁Nevertheless	-11.3711
▁Picture	-11.3711
▁Video	-11.3712
▁expertise	-11.3715
▁approve	-11.3734
▁hybrid	-11.3734
▁template	-11.3734
▁creep	-11.3735
▁elaborate	-11.3757
▁presumably	-11.3757
▁Chairman	-11.3757
▁Congressional	-11.3758
▁reception	-11.3758
▁crystal	-11.3758
generation	-11.376
▁distort	-11.3761
safe	-11.3762
▁chase	-11.3772
▁gradually	-11.3781
▁pioneer	-11.3781
▁billionaire	-11.3781
spec	-11.379
profile	-11.3804
▁sketch	-11.3804
▁fragment	-11.3804
▁spare	-11.3804
▁participating	-11.3827
▁wrestling	-11.3827
▁comparable	-11.3827
▁sensation	-11.3827
▁GPU	-11.3827
▁fierce	-11.3827
▁admission	-11.3828
▁Model	-11.384
▁Communist	-11.385
▁McConnell	-11.385
▁autonomous	-11.385
▁calendar	-11.385
▁denial	-11.3857
▁Should	-11.3874
▁vague	-11.3877
plain	-11.3888
▁Find	-11.3897
▁Magazine	-11.3897
definite	-11.3897
▁evaluation	-11.3899
▁Jimmy	-11.3899
▁diagnose	-11.392
▁Larry	-11.392
▁blade	-11.3921
▁crude	-11.3922
***	-11.3936
▁harvest	-11.3944
▁Liberty	-11.3944
▁pursuit	-11.3944
▁Building	-11.3944
▁consequence	-11.3957
▁addict	-11.3959
▁folk	-11.3963
▁pregnancy	-11.3967
▁spectacular	-11.3967
▁computing	-11.3967
▁density	-11.3968
▁Digital	-11.3991
▁pizza	-11.3991
because	-11.3992
▁shrink	-11.3993
▁brush	-11.3993
▁oversight	-11.3994
▁motive	-11.4015
▁citizenship	-11.4017
▁productivity	-11.4017
▁triumph	-11.4038
▁Observ	-11.4038
▁Jefferson	-11.4038
▁commute	-11.4038
▁orientation	-11.4038
▁disabled	-11.4039
▁meanwhile	-11.404
▁Tiger	-11.4046
▁affiliate	-11.4053
▁imagination	-11.4062
▁earliest	-11.4062
▁linebacker	-11.4062
▁Staff	-11.4062
▁Aaron	-11.4063
2.1	-11.4067
▁pause	-11.4076
▁Instagram	-11.4086
▁affirm	-11.4086
▁boundaries	-11.4087
▁Besides	-11.4087
controlled	-11.409
▁Charlotte	-11.411
▁optimistic	-11.4113
▁contributing	-11.4133
▁devastating	-11.4133
▁yeah	-11.4134
▁Vermont	-11.4134
▁WWE	-11.4134
▁explode	-11.4134
▁Connecticut	-11.4157
▁vacation	-11.4158
▁beloved	-11.4158
▁uncertain	-11.4178
▁Arsenal	-11.4182
▁accelerate	-11.4182
▁ritual	-11.4182
issue	-11.4192
▁compliance	-11.4206
▁completion	-11.4206
▁alternate	-11.4206
▁clever	-11.4206
▁pricing	-11.4206
▁transmission	-11.4207
Trump	-11.4209
▁Antonio	-11.423
▁Direct	-11.424
▁aggression	-11.4254
▁trapped	-11.4256
▁whisk	-11.4256
▁Susan	-11.4261
▁arguably	-11.4278
▁Russell	-11.4278
▁essence	-11.4278
▁generous	-11.4279
▁Small	-11.4279
▁correlation	-11.4303
▁flexibility	-11.4303
▁unnecessary	-11.4303
▁temple	-11.4303
▁Mount	-11.4303
▁steep	-11.4308
Just	-11.4308
▁availability	-11.4327
▁nutrition	-11.4327
▁Lawrence	-11.4327
▁Sessions	-11.4327
▁Future	-11.4331
▁0.4	-11.4351
▁Warrior	-11.4351
patriot	-11.4352
▁terminal	-11.4353
4.5	-11.4373
▁Campbell	-11.4376
▁MORE	-11.4376
▁Stanley	-11.4376
▁ugly	-11.4378
▁modification	-11.4379
▁mineral	-11.4399
▁Parenthood	-11.44
▁portfolio	-11.44
▁stunning	-11.44
▁greet	-11.4401
▁owl	-11.4401
▁lung	-11.4407
▁Verizon	-11.4425
▁believing	-11.4425
▁indicator	-11.4426
▁organizing	-11.4429
▁grasp	-11.4449
▁reluctant	-11.445
▁gesture	-11.445
▁deciding	-11.445
▁Harvey	-11.445
▁funeral	-11.445
▁awkward	-11.4475
▁stomach	-11.4475
▁kingdom	-11.4475
▁interrogat	-11.4475
▁Finn	-11.4475
▁flew	-11.4475
▁placing	-11.4478
Photo	-11.4482
▁fiber	-11.4484
▁lease	-11.4485
▁administer	-11.4499
▁beneficial	-11.4499
▁genius	-11.4499
▁ethical	-11.4501
▁submission	-11.4502
political	-11.4507
flat	-11.4511
▁Urban	-11.4524
▁unfold	-11.4524
▁intersection	-11.4524
▁cruise	-11.4524
▁Update	-11.4526
▁accommodate	-11.4549
▁dioxide	-11.4549
▁Advance	-11.4549
▁Climate	-11.4549
▁prevail	-11.4549
▁Nigeria	-11.455
▁anchor	-11.4554
▁warrior	-11.4574
▁nerve	-11.4576
>>	-11.4585
▁opioid	-11.4599
▁jacket	-11.4599
▁isolation	-11.4601
▁spike	-11.4604
▁chocolate	-11.4624
▁embedded	-11.4624
▁Swift	-11.4624
▁Article	-11.4624
▁monarch	-11.4626
▁Planned	-11.4627
▁chunk	-11.4629
▁Citizen	-11.465
▁Imagine	-11.465
▁transparent	-11.465
▁sequel	-11.465
▁buzz	-11.465
After	-11.4658
▁statue	-11.4659
▁financing	-11.4675
▁vitamin	-11.4675
▁geographic	-11.4675
▁Fisher	-11.4676
▁admire	-11.4677
▁mild	-11.468
▁Cincinnati	-11.47
▁caucus	-11.47
▁romantic	-11.47
▁streak	-11.47
▁dubbed	-11.47
▁closure	-11.4726
▁mortality	-11.4726
▁heritage	-11.4726
▁denounc	-11.4737
▁tweak	-11.4751
▁aesthetic	-11.4751
▁infamous	-11.4751
▁simulation	-11.4751
▁aftermath	-11.4751
▁Index	-11.4753
people	-11.476
▁refusing	-11.4777
▁bounce	-11.478
first	-11.4786
[19]	-11.4791
▁forgive	-11.4792
western	-11.4799
▁Berkeley	-11.4802
▁molecule	-11.4802
▁mandatory	-11.4802
▁smash	-11.4802
digit	-11.4806
▁inevitably	-11.4828
▁Watson	-11.4828
▁licensing	-11.4853
▁Target	-11.4853
▁spoil	-11.4854
▁Crown	-11.4854
.0%	-11.4856
▁creativity	-11.4879
▁prosecute	-11.4879
▁transcript	-11.4879
▁gravity	-11.4879
▁concede	-11.4881
ennial	-11.4881
▁whale	-11.489
▁Beyond	-11.4905
▁wreck	-11.4905
▁absent	-11.4905
▁assuming	-11.4905
▁interference	-11.4906
▁betray	-11.4908
1.8	-11.4915
cultural	-11.4916
While	-11.4916
scape	-11.4919
▁drought	-11.4931
▁societies	-11.4931
▁territories	-11.4931
▁podcast	-11.4931
▁freak	-11.4931
▁charm	-11.4937
▁Vladimir	-11.4957
▁credibility	-11.4957
▁Abdul	-11.4957
▁navigate	-11.4983
▁purchasing	-11.4983
▁wander	-11.4983
slav	-11.4983
▁relieve	-11.4993
economic	-11.4994
▁satisfied	-11.5009
▁pursuing	-11.5009
▁Malaysia	-11.5009
▁warfare	-11.5009
length	-11.5021
system	-11.5025
▁thumb	-11.5035
▁massacre	-11.5035
▁Qatar	-11.5036
▁generating	-11.5037
borough	-11.5038
▁Storm	-11.5041
origin	-11.5052
▁announcing	-11.5061
▁mathematical	-11.5061
▁Jeremy	-11.5061
▁comparing	-11.5062
▁urgent	-11.5067
▁Bloomberg	-11.5088
▁slaughter	-11.5088
▁Rubio	-11.5088
▁obscure	-11.5088
▁indicating	-11.5088
▁troll	-11.5094
▁adhere	-11.5096
▁Costa	-11.5097
▁harass	-11.511
▁suspicious	-11.5114
▁Federation	-11.5114
▁kernel	-11.5114
▁babies	-11.5114
ст	-11.5115
▁Brotherhood	-11.5141
▁cocaine	-11.5141
▁declining	-11.5141
▁amateur	-11.5141
▁profession	-11.5143
-----	-11.5146
▁legislator	-11.5167
▁glove	-11.5168
▁retire	-11.5169
▁frozen	-11.5194
▁occupy	-11.5194
▁Something	-11.5195
▁precedent	-11.5195
▁Learn	-11.5196
▁summari	-11.5208
agged	-11.521
▁Marshall	-11.522
▁Yahoo	-11.522
▁hammer	-11.5221
▁problematic	-11.5221
▁vegan	-11.5221
▁plaintiff	-11.5247
▁communist	-11.5247
[21]	-11.5248
▁flesh	-11.5248
▁Smart	-11.5248
▁Muhammad	-11.5274
▁excitement	-11.5274
▁JavaScript	-11.5274
▁companion	-11.5274
▁skate	-11.5278
3.0	-11.5306
▁optimis	-11.5327
▁statute	-11.5328
[20]	-11.5331
▁literary	-11.5355
▁grabbed	-11.5355
▁psychology	-11.5382
▁assignment	-11.5382
▁urging	-11.5382
Value	-11.54
▁Mitchell	-11.5409
▁Indonesia	-11.5409
▁subscription	-11.5409
▁treasure	-11.5409
▁Taiwan	-11.5409
▁probability	-11.5409
▁benchmark	-11.5409
▁endanger	-11.5409
[23]	-11.5411
▁encryption	-11.5436
▁infinite	-11.5437
▁width	-11.5437
Nearly	-11.5437
1.7	-11.5446
▁Campaign	-11.5464
▁substitute	-11.5464
▁Elliot	-11.5464
▁drastic	-11.5464
▁humanitarian	-11.5491
▁penalties	-11.5491
▁likelihood	-11.5491
▁economies	-11.5519
▁immense	-11.5519
▁refresh	-11.5519
▁precious	-11.5519
▁scatter	-11.5519
▁honour	-11.5519
▁Century	-11.5546
▁cyclist	-11.5546
▁Tampa	-11.5546
efficient	-11.5564
▁stereotype	-11.5574
▁distress	-11.5574
▁Library	-11.5574
phobia	-11.5574
▁astronaut	-11.5601
▁servant	-11.5601
▁inhibit	-11.5602
▁stroke	-11.5602
▁cousin	-11.5602
▁temporarily	-11.5629
▁Shadow	-11.5629
▁complicat	-11.5634
▁lesbian	-11.5657
▁Blood	-11.5657
▁Arctic	-11.5657
▁invention	-11.5659
▁grind	-11.5659
defined	-11.5676
▁hypothesis	-11.5685
▁indigenous	-11.5685
▁libertarian	-11.5685
▁hazard	-11.5685
▁expire	-11.5693
▁Netanyahu	-11.5713
▁magnitude	-11.5713
▁Neither	-11.5713
▁offshore	-11.5713
▁complement	-11.5713
▁Madrid	-11.5713
▁bedroom	-11.5714
▁bipartisan	-11.5741
▁memorial	-11.5741
▁Political	-11.5741
▁auction	-11.5741
▁renewed	-11.5741
▁detained	-11.5741
induced	-11.5766
▁Castle	-11.5769
▁Singh	-11.5774
▁invade	-11.578
▁Milwaukee	-11.5798
▁Trudeau	-11.5798
▁provincial	-11.5798
▁Stewart	-11.5798
▁ladder	-11.5798
40,000	-11.5814
written	-11.5818
driven	-11.5818
▁Software	-11.5826
▁thirty	-11.5826
▁pencil	-11.5826
▁rabbi	-11.5827
especially	-11.5847
▁Survey	-11.5854
▁DVD	-11.5854
▁Flynn	-11.5854
▁garage	-11.5855
▁actress	-11.5855
▁Could	-11.5855
▁Collins	-11.5855
▁Military	-11.5883
▁generator	-11.5883
▁Senior	-11.5883
▁boycott	-11.5884
▁suppose	-11.5893
effective	-11.5904
collect	-11.5911
▁collision	-11.5911
▁damaging	-11.5911
▁Consumer	-11.5911
▁Recently	-11.5911
▁intervene	-11.5918
▁bankruptcy	-11.594
▁militia	-11.594
▁refusal	-11.594
▁powder	-11.594
▁determining	-11.594
▁mosque	-11.5941
View	-11.5962
mouth	-11.5963
▁Broncos	-11.5969
▁Buffalo	-11.5969
▁Switzerland	-11.5969
▁convincing	-11.5969
▁rhythm	-11.5969
▁sensitivity	-11.5969
▁qualities	-11.5969
▁identification	-11.5969
▁Serbia	-11.5974
writing	-11.5991
displaystyle	-11.5998
▁Benjamin	-11.5998
▁Enterprise	-11.5998
▁Either	-11.5998
▁Appeal	-11.5998
▁patron	-11.5998
▁Glenn	-11.5998
▁slap	-11.6008
establish	-11.602
▁Regardless	-11.6026
▁virtue	-11.6026
▁medieval	-11.6026
▁Draft	-11.6027
▁Crimea	-11.6029
2.4	-11.6049
▁Deputy	-11.6055
▁swimming	-11.6084
▁unanimous	-11.6084
▁Oliver	-11.6085
▁psychologist	-11.6085
▁depriv	-11.609
built	-11.6109
responsibilities	-11.6114
▁Apparently	-11.6114
▁accompany	-11.6114
▁galaxy	-11.6114
▁applicant	-11.6114
▁genome	-11.6114
▁telescope	-11.6114
▁temper	-11.6115
▁colleague	-11.6142
▁introducing	-11.6143
▁supplied	-11.6143
▁Griffin	-11.6143
▁overhaul	-11.6143
▁Animal	-11.6143
▁Title	-11.6146
▁inspection	-11.6146
▁disadvantage	-11.6172
▁pedestrian	-11.6172
▁Murphy	-11.6172
▁invitation	-11.6172
▁malware	-11.6172
▁BJP	-11.6172
▁Friends	-11.6193
degree	-11.6197
▁separation	-11.6202
▁compassion	-11.6202
▁leather	-11.6202
▁dispatch	-11.6202
▁grateful	-11.6202
▁Falcon	-11.6202
▁dictate	-11.6203
▁accent	-11.6204
▁appoint	-11.6222
service	-11.6227
▁Barcelona	-11.6231
▁diabetes	-11.6231
▁enthusiasm	-11.6231
▁delicious	-11.6231
▁Universal	-11.6261
▁celebrity	-11.6261
▁Safety	-11.6261
▁sacred	-11.6261
fascist	-11.6262
▁Ferguson	-11.629
▁preliminary	-11.629
▁Merkel	-11.629
▁Thunder	-11.629
▁disgust	-11.629
▁Sudan	-11.6291
▁artifact	-11.632
▁Leonard	-11.632
▁Editor	-11.632
▁unrest	-11.6327
7.5	-11.6335
worm	-11.6343
▁supplier	-11.635
▁summary	-11.635
▁swift	-11.635
▁nightmare	-11.635
▁accuse	-11.6365
▁enabling	-11.638
▁wrestle	-11.638
▁orchestra	-11.638
▁invoke	-11.6394
▁institute	-11.641
▁nutrient	-11.641
ocratic	-11.6429
function	-11.6437
▁chemistry	-11.644
▁protagonist	-11.644
▁superhero	-11.644
▁thrive	-11.644
▁Argentina	-11.647
▁Electric	-11.647
▁critique	-11.647
▁drift	-11.647
▁salaries	-11.647
▁intensity	-11.647
▁sheriff	-11.647
▁Content	-11.6471
▁concession	-11.6501
▁Swiss	-11.6501
▁NDP	-11.6501
▁speculate	-11.651
▁Associate	-11.6513
▁tolerate	-11.6516
official	-11.6529
▁Douglas	-11.6531
▁arriving	-11.6531
▁straightforward	-11.6531
▁intimate	-11.6533
intensive	-11.6535
▁allocate	-11.6539
▁definitive	-11.6561
▁skeptical	-11.6561
▁Belgian	-11.6561
▁solidarity	-11.6561
▁Barbara	-11.6561
▁Wonder	-11.6562
▁anarchist	-11.6562
▁Formula	-11.6592
▁accumulate	-11.6592
▁catalog	-11.6592
▁pistol	-11.6592
content	-11.6592
▁Brussels	-11.6623
▁Colombia	-11.6623
▁Memorial	-11.6623
▁reservation	-11.6623
▁Computer	-11.6623
▁policing	-11.6623
▁compiler	-11.6623
▁teenage	-11.6639
▁Boehner	-11.6653
▁convenience	-11.6653
▁Arnold	-11.6654
▁twelve	-11.6684
▁Chrome	-11.6684
▁portrait	-11.6684
▁millennia	-11.6685
▁overwhelm	-11.6686
▁Melbourne	-11.6715
▁achieving	-11.6715
▁Lebanon	-11.6715
[22]	-11.6716
lapse	-11.6726
▁fortunate	-11.6746
▁declaring	-11.6746
▁ancestor	-11.6746
▁Montana	-11.6747
▁compensate	-11.6747
▁curb	-11.6747
▁Transportation	-11.6778
▁unlimited	-11.6778
▁assembled	-11.6778
▁indictment	-11.6778
▁slogan	-11.6778
▁Alpha	-11.6778
▁Baghdad	-11.6809
▁misleading	-11.6809
▁quantity	-11.6809
▁gallon	-11.6809
▁Study	-11.6809
▁Iceland	-11.6809
▁chord	-11.681
▁defining	-11.681
▁relentless	-11.684
▁identities	-11.684
▁Keith	-11.684
▁blur	-11.6841
resistant	-11.6871
▁epidemic	-11.6872
▁glance	-11.6872
▁Finance	-11.6872
▁beverage	-11.6872
▁manipulation	-11.6903
▁glory	-11.6903
▁Classic	-11.6905
▁Belgium	-11.6935
▁disappointing	-11.6935
▁annoying	-11.6935
▁ignoring	-11.6935
▁credible	-11.6935
▁homeowner	-11.6935
▁varied	-11.6935
▁Fortunately	-11.6966
▁Hurricane	-11.6966
▁violating	-11.6967
▁swept	-11.6967
▁interfere	-11.6968
▁hype	-11.6991
▁Abbott	-11.6998
▁Occupy	-11.6998
▁Ubuntu	-11.6998
▁incumbent	-11.6998
▁whilst	-11.6998
▁jersey	-11.6998
▁Cambridge	-11.703
▁expenditure	-11.703
▁grandfather	-11.703
▁frankly	-11.703
▁Budget	-11.703
▁terrain	-11.7031
encrypted	-11.7033
▁diagnosis	-11.7062
▁malicious	-11.7062
▁manufactured	-11.7062
▁underneath	-11.7062
▁regain	-11.7063
▁anonymity	-11.7094
commerce	-11.7095
▁conquer	-11.7095
▁crust	-11.7096
Affordable	-11.7127
▁glimpse	-11.7127
▁feminism	-11.7127
▁automated	-11.7127
▁Ebola	-11.7127
▁Previous	-11.7127
▁constituent	-11.7159
▁Dennis	-11.7159
▁Wizard	-11.7192
▁Cowboys	-11.7224
▁celebrities	-11.7224
▁frustrating	-11.7224
▁mammal	-11.7224
▁Raiders	-11.7224
▁Bishop	-11.7224
▁prince	-11.7225
▁disappointment	-11.7257
▁misconduct	-11.7257
▁unleash	-11.7257
Employ	-11.7257
▁pseudo	-11.7264
▁garbage	-11.729
▁confusing	-11.729
▁bolster	-11.729
▁overlap	-11.7292
[30]	-11.7294
girl	-11.7294
▁Agreement	-11.7323
▁arbitrary	-11.7323
▁nickname	-11.7323
▁dancing	-11.7323
▁Challenge	-11.7323
intuitive	-11.7323
▁spouse	-11.7323
[25]	-11.7326
▁atmospheric	-11.7356
▁throat	-11.7356
▁sculpt	-11.7356
▁Chapter	-11.7356
▁clarify	-11.7356
html	-11.7389
▁Dolphin	-11.7389
▁kilometers	-11.7389
▁Criminal	-11.7389
▁Einstein	-11.7389
something	-11.7396
▁HTML	-11.7422
▁Palestine	-11.7422
▁squeeze	-11.7422
▁vacuum	-11.7422
▁cautious	-11.7422
▁sphere	-11.7422
▁relating	-11.7423
release	-11.743
60,000	-11.7431
▁0.00	-11.745
▁albeit	-11.7455
▁Silicon	-11.7455
▁Nexus	-11.7455
▁anthropo	-11.7455
ului	-11.746
unconstitutional	-11.7489
▁Country	-11.7489
▁completing	-11.7489
▁guilt	-11.7497
▁militar	-11.7497
toxic	-11.755
▁austerity	-11.7556
▁crawl	-11.7556
▁provoke	-11.7556
▁aluminum	-11.759
▁embarrassing	-11.759
▁surplus	-11.759
▁matrix	-11.759
▁Spencer	-11.759
▁clarity	-11.759
▁Machine	-11.759
▁Movement	-11.759
▁Morrissey	-11.759
▁polish	-11.759
▁Movie	-11.7591
▁Walmart	-11.7624
▁forthcoming	-11.7624
▁maneuver	-11.7624
▁Hockey	-11.7624
▁Follow	-11.7631
▁surf	-11.7632
▁unwilling	-11.7658
▁Apollo	-11.7658
[27]	-11.7665
▁Large	-11.767
▁Thailand	-11.7692
▁celebrating	-11.7692
£	-12.1425
